<unk>	0
<s>	0
</s>	0
▁,	-3.11188
▁	-3.44583
s	-3.69801
▁.	-3.92617
的	-4.10777
▁the	-4.11718
▁。	-4.37895
▁and	-4.47249
▁to	-4.54396
▁a	-4.64212
'	-4.71526
▁of	-4.72721
▁that	-4.93451
▁in	-4.98103
▁i	-4.99812
t	-5.1177
▁it	-5.17123
▁we	-5.21029
▁you	-5.27329
ing	-5.31662
▁is	-5.38912
是	-5.50299
在	-5.53037
d	-5.53462
ed	-5.57331
re	-5.62474
▁this	-5.64218
▁"	-5.66069
▁?	-5.66291
了	-5.68996
▁so	-5.77127
e	-5.8302
▁for	-5.93293
有	-5.93639
▁我	-5.9364
我	-5.95815
:	-5.97986
m	-6.00632
▁they	-6.01025
我們	-6.02354
▁was	-6.03755
ly	-6.05727
▁are	-6.06388
y	-6.07511
n	-6.08059
▁but	-6.12794
▁我們	-6.1392
一	-6.13923
▁have	-6.1598
不	-6.1804
▁on	-6.18529
人	-6.19298
▁with	-6.20986
▁be	-6.21344
和	-6.22434
▁what	-6.23534
▁can	-6.23683
會	-6.23928
、	-6.2517
er	-6.27353
上	-6.29162
r	-6.39984
來	-6.40708
到	-6.40818
▁do	-6.43511
大	-6.45067
▁as	-6.45245
▁not	-6.46521
▁about	-6.46641
▁my	-6.49383
▁at	-6.50238
你	-6.50485
▁all	-6.5252
說	-6.53008
▁there	-6.54788
a	-6.55212
al	-6.55883
▁one	-6.58454
中	-6.59855
▁like	-6.61032
一個	-6.61761
很	-6.61953
ve	-6.63699
▁people	-6.64593
▁he	-6.64826
▁or	-6.64847
▁an	-6.65407
▁me	-6.65444
▁our	-6.66351
c	-6.67665
▁「	-6.68025
▁」	-6.68396
這	-6.68847
▁from	-6.69466
ll	-6.71152
要	-6.71413
▁if	-6.71514
時	-6.73394
能	-6.75151
用	-6.76445
他們	-6.78446
es	-6.78474
o	-6.78556
▁when	-6.80438
對	-6.80814
g	-6.80959
▁just	-6.81492
le	-6.82691
就	-6.82832
都	-6.84332
▁now	-6.85577
▁these	-6.86121
地	-6.86655
出	-6.88232
or	-6.88992
ic	-6.89111
▁這	-6.89715
▁out	-6.90969
去	-6.91296
ri	-6.92323
in	-6.9268
ar	-6.92717
年	-6.93078
▁by	-6.93124
被	-6.94077
▁because	-6.94667
這個	-6.94937
▁但	-6.95038
▁us	-6.96203
▁up	-6.96513
可以	-6.97043
這些	-6.97897
ion	-6.98033
▁how	-6.98359
▁more	-6.99999
也	-7.01097
▁know	-7.01871
b	-7.02032
▁their	-7.02045
所	-7.03115
▁who	-7.03706
p	-7.03739
子	-7.04252
▁them	-7.04719
▁your	-7.05319
▁had	-7.05868
▁你	-7.07085
▁在	-7.07259
過	-7.07452
▁see	-7.07475
very	-7.09574
▁would	-7.09668
好	-7.10612
▁were	-7.11639
為	-7.11898
做	-7.12
他	-7.12464
著	-7.1257
下	-7.13017
它	-7.13183
ation	-7.13219
把	-7.13341
▁no	-7.14082
▁going	-7.15111
▁get	-7.16186
l	-7.16208
▁think	-7.16586
從	-7.19524
最	-7.19689
想	-7.20324
▁他們	-7.20513
k	-7.20632
th	-7.2181
於	-7.23299
小	-7.23657
▁which	-7.23755
▁time	-7.24548
u	-7.24733
ce	-7.25349
看	-7.25652
▁world	-7.264
▁de	-7.27262
裡	-7.2783
▁really	-7.28174
▁other	-7.28375
多	-7.28381
▁f	-7.29363
▁some	-7.29719
h	-7.30677
▁here	-7.31591
li	-7.3194
▁所以	-7.33005
▁co	-7.33112
生	-7.33328
成	-7.33606
將	-7.33852
者	-7.34103
▁has	-7.34529
▁will	-7.34538
en	-7.34729
ers	-7.34743
個	-7.34749
以	-7.35272
▁don	-7.35453
與	-7.35593
得	-7.36312
開始	-7.36448
更	-7.36754
▁into	-7.37281
沒有	-7.37558
ent	-7.37586
ur	-7.37824
▁then	-7.37828
▁go	-7.38962
▁p	-7.39227
性	-7.39274
後	-7.39512
an	-7.40026
it	-7.40396
▁where	-7.41011
而	-7.41247
▁way	-7.41407
心	-7.42376
▁she	-7.42805
的人	-7.43144
就是	-7.43549
on	-7.43597
▁could	-7.43825
▁st	-7.4402
體	-7.44175
▁b	-7.46491
f	-7.46563
▁look	-7.46812
w	-7.46937
ity	-7.47005
▁years	-7.4796
i	-7.48044
▁work	-7.48194
▁want	-7.48253
那	-7.4858
▁make	-7.48777
il	-7.49353
▁actually	-7.50292
非常	-7.50549
家	-7.50801
給	-7.51095
ate	-7.51503
▁right	-7.51761
▁c	-7.52172
▁這是	-7.52236
ck	-7.52814
▁new	-7.5299
▁been	-7.53257
ive	-7.53845
比	-7.5397
▁con	-7.5409
點	-7.54247
還	-7.54357
▁over	-7.54399
力	-7.54571
可	-7.54709
▁even	-7.55314
▁things	-7.55457
知道	-7.55539
ter	-7.56328
▁而	-7.56412
▁他	-7.57044
ch	-7.57561
▁well	-7.58198
ra	-7.58501
those	-7.58579
高	-7.59029
讓	-7.60129
▁first	-7.60181
面	-7.60195
不是	-7.60686
▁它	-7.61114
▁因為	-7.61282
天	-7.61341
▁than	-7.61518
▁need	-7.61937
無	-7.6201
ro	-7.62174
長	-7.62527
之	-7.64179
▁;	-7.65097
▁two	-7.65635
id	-7.65722
同	-7.65762
發	-7.65888
當	-7.66338
▁also	-7.66373
自己	-7.66963
斯	-7.6706
▁his	-7.67564
▁most	-7.67754
像	-7.69521
▁something	-7.69617
▁!	-7.69662
.	-7.69795
5	-7.6992
▁her	-7.69958
▁life	-7.70171
est	-7.70259
at	-7.70267
▁un	-7.70349
ment	-7.70367
事	-7.70629
分	-7.70632
或	-7.70932
▁take	-7.7111
ne	-7.71964
de	-7.72021
te	-7.72274
可能	-7.72794
動	-7.7301
z	-7.73119
前	-7.7314
ge	-7.7329
▁e	-7.73446
化	-7.73564
▁back	-7.73784
▁much	-7.74249
我的	-7.75048
一些	-7.75612
▁come	-7.76056
開	-7.76353
問題	-7.76421
▁said	-7.76477
水	-7.76501
數	-7.76635
學	-7.76769
ol	-7.76806
外	-7.76808
需要	-7.76946
▁only	-7.7792
el	-7.77936
▁many	-7.77984
us	-7.78206
進	-7.78524
正	-7.78569
手	-7.78808
na	-7.79183
▁ex	-7.79496
嗎	-7.80061
法	-7.8018
已經	-7.80622
什麼	-7.80737
is	-7.81458
位	-7.82
發現	-7.82041
ad	-7.82374
她	-7.82605
那些	-7.82719
行	-7.82782
特	-7.82892
▁say	-7.83263
▁thing	-7.83505
ld	-7.83616
重	-7.83988
▁talk	-7.84342
▁got	-7.84391
名	-7.84547
▁ra	-7.84604
▁mo	-7.84655
▁lot	-7.85007
相	-7.85127
現在	-7.85349
回	-7.85427
我們的	-7.85833
▁let	-7.8602
ul	-7.86056
la	-7.86776
▁every	-7.86871
沒	-7.86966
度	-7.87107
及	-7.8779
▁little	-7.88052
▁kind	-7.88145
▁human	-7.88312
as	-7.88408
如何	-7.88459
x	-7.88618
ted	-7.88754
機	-7.88758
able	-7.89883
lo	-7.89981
▁pro	-7.90487
一樣	-7.90575
跟	-7.90654
頭	-7.90654
起	-7.9143
ma	-7.91748
內	-7.918
▁po	-7.92068
▁dis	-7.92329
ru	-7.92904
op	-7.93082
利	-7.9342
合	-7.93452
▁但是	-7.93667
自	-7.93732
▁different	-7.93889
▁good	-7.9396
▁through	-7.94016
ry	-7.94122
發生	-7.94194
改變	-7.94349
向	-7.94552
你們	-7.9457
加	-7.94757
ph	-7.95244
▁ma	-7.95612
▁why	-7.96341
如	-7.96373
新	-7.96381
▁ho	-7.96472
見	-7.96684
▁did	-7.96737
本	-7.96863
▁然後	-7.97135
ke	-7.97571
克	-7.97655
看到	-7.97889
量	-7.9798
期	-7.98147
世界	-7.98256
場	-7.9829
2	-7.98389
▁around	-7.98657
tic	-7.98829
▁那	-7.98843
理	-7.98872
放	-7.98947
ies	-7.99102
兩	-7.99415
▁use	-7.99805
物	-8.00555
研究	-8.00763
其他	-8.00779
這樣	-8.0097
▁show	-8.00972
先	-8.0125
▁down	-8.01677
身	-8.01771
▁w	-8.01865
國家	-8.02017
▁being	-8.02056
▁tell	-8.02149
業	-8.02384
工作	-8.02468
只	-8.02824
▁any	-8.02925
ok	-8.03225
▁di	-8.03577
三	-8.03858
部	-8.04067
7	-8.04116
▁part	-8.04245
愛	-8.04271
人們	-8.0429
▁ca	-8.04424
意	-8.04712
om	-8.04788
種	-8.05078
處	-8.05175
色	-8.05181
作	-8.05299
真的	-8.05484
公	-8.05656
圖	-8.05805
車	-8.0588
▁same	-8.05934
ver	-8.06079
me	-8.06181
▁有	-8.06384
人類	-8.06466
你的	-8.06728
▁sh	-8.0677
0	-8.0741
因為	-8.07558
▁car	-8.07575
打	-8.07582
問	-8.08028
▁g	-8.08594
▁這些	-8.08704
ti	-8.0887
im	-8.08985
▁現在	-8.08994
邊	-8.09049
爾	-8.09098
國	-8.09259
拉	-8.09394
光	-8.09543
走	-8.09658
ally	-8.09701
pe	-8.09801
▁day	-8.09848
方	-8.09928
使用	-8.10079
感	-8.10549
▁change	-8.10695
幾	-8.11146
um	-8.1146
太	-8.11651
▁如果	-8.11825
▁put	-8.11886
▁她	-8.11932
呢	-8.1215
tra	-8.12281
9	-8.12611
道	-8.12699
ting	-8.12949
間	-8.1348
com	-8.13884
教	-8.13938
po	-8.13974
▁after	-8.14361
的是	-8.14458
再	-8.14587
海	-8.14894
能夠	-8.15114
任何	-8.15143
ant	-8.15386
bi	-8.15896
▁fact	-8.16
▁find	-8.16455
這種	-8.16509
lu	-8.16511
它們	-8.16743
▁system	-8.16778
ance	-8.16809
才	-8.16999
▁try	-8.17015
不會	-8.17076
入	-8.17226
▁sp	-8.17228
▁start	-8.17339
▁great	-8.17628
4	-8.17838
--	-8.17967
▁br	-8.18035
v	-8.18313
線	-8.18351
mo	-8.18453
▁thank	-8.18526
▁three	-8.18767
花	-8.18821
美國	-8.19012
di	-8.19125
▁help	-8.19422
原	-8.19839
又	-8.19858
平	-8.19867
設計	-8.2014
許多	-8.20165
談	-8.21011
大家	-8.21077
情	-8.21314
電	-8.21454
十	-8.21588
受	-8.21824
所有	-8.22047
ist	-8.22368
▁today	-8.22449
▁mean	-8.22508
ci	-8.22625
信	-8.227
▁own	-8.22825
次	-8.22924
▁ha	-8.22982
▁su	-8.2307
vi	-8.23216
un	-8.23346
氣	-8.23778
ow	-8.24042
▁called	-8.24043
想要	-8.2415
亞	-8.24195
時間	-8.24646
使	-8.25202
ng	-8.25257
cu	-8.25451
提	-8.25691
聽	-8.25707
帶	-8.25784
達	-8.25827
he	-8.25878
一種	-8.25884
▁gr	-8.26183
流	-8.26221
▁這個	-8.26374
ness	-8.26378
▁bo	-8.26418
明	-8.26436
3	-8.2646
都是	-8.26491
常	-8.26541
8	-8.26804
系統	-8.26926
路	-8.2711
▁percent	-8.27132
sh	-8.27256
無法	-8.27476
▁made	-8.28114
▁ro	-8.28462
▁doing	-8.28759
mp	-8.28844
馬	-8.28868
▁should	-8.29008
的時候	-8.29153
▁ba	-8.29263
▁give	-8.29596
and	-8.30081
age	-8.30088
文	-8.30107
ction	-8.30235
認為	-8.30258
四	-8.30259
應該	-8.30266
器	-8.30302
全	-8.30495
傳	-8.30711
ut	-8.30954
to	-8.31198
金	-8.31259
▁k	-8.3129
論	-8.31435
▁pa	-8.31518
寫	-8.31546
希望	-8.32105
ha	-8.32399
6	-8.32446
1	-8.32477
卻	-8.32746
話	-8.32753
▁high	-8.3285
轉	-8.32859
mi	-8.33061
▁end	-8.33063
必須	-8.33179
日	-8.33184
難	-8.33211
ber	-8.33213
▁didn	-8.33384
五	-8.33435
強	-8.33561
▁wi	-8.34014
▁se	-8.34065
只是	-8.34139
此	-8.34288
▁pre	-8.34349
ni	-8.34726
他們的	-8.34968
▁before	-8.34998
基	-8.35193
員	-8.35233
▁idea	-8.3542
片	-8.35674
▁就	-8.35785
ag	-8.36121
士	-8.3624
工	-8.36275
▁love	-8.36383
▁brain	-8.36675
▁li	-8.36812
指	-8.36845
民	-8.37225
視	-8.37241
覺得	-8.37322
▁each	-8.37344
觀	-8.37699
ect	-8.37762
萬	-8.37807
pi	-8.37986
反	-8.38034
但	-8.38084
▁might	-8.38271
確	-8.38288
其	-8.38354
▁20	-8.38498
型	-8.38519
▁year	-8.38694
西	-8.38764
很多	-8.38806
得到	-8.39014
社會	-8.39076
怎麼	-8.39303
書	-8.39392
ful	-8.39611
了解	-8.39633
ia	-8.39699
▁lo	-8.40008
字	-8.40039
▁important	-8.40173
▁understand	-8.40196
tion	-8.40594
▁still	-8.40736
▁never	-8.4092
ian	-8.41116
實	-8.41262
影響	-8.41688
▁off	-8.41704
▁thought	-8.41726
極	-8.41755
no	-8.41775
就會	-8.41913
ir	-8.41927
j	-8.42063
▁another	-8.4212
▁last	-8.42278
▁當	-8.42323
▁live	-8.42414
深	-8.42486
▁mar	-8.42495
真	-8.42536
星	-8.42581
▁better	-8.42581
ty	-8.42604
▁si	-8.42883
並	-8.42974
▁sa	-8.43224
定	-8.43354
交	-8.4336
應	-8.43365
ster	-8.4337
%	-8.43431
▁play	-8.43644
ig	-8.43932
▁act	-8.4474
▁started	-8.44856
主	-8.44913
東西	-8.45105
生物	-8.45646
▁design	-8.45679
群	-8.45725
’	-8.45774
▁da	-8.4578
▁found	-8.45893
les	-8.46235
ated	-8.46381
▁big	-8.46451
ac	-8.46537
ta	-8.46686
其實	-8.46754
▁ga	-8.46805
▁long	-8.4695
成為	-8.47073
▁ta	-8.4729
▁如果你	-8.47335
每	-8.47588
▁la	-8.47653
取	-8.47756
▁together	-8.47834
ten	-8.47895
▁000	-8.47963
類	-8.48027
不同	-8.48031
ence	-8.48036
立	-8.48136
ous	-8.48232
完全	-8.48257
知	-8.4841
等	-8.48476
們	-8.48482
ical	-8.48526
wa	-8.4856
ca	-8.48991
千	-8.49075
▁而且	-8.49122
老	-8.49156
歲	-8.49321
▁number	-8.49345
am	-8.4944
▁water	-8.49643
ard	-8.49646
▁example	-8.49739
張	-8.49763
▁school	-8.49788
▁women	-8.49813
iv	-8.49875
品	-8.49886
例	-8.49948
▁place	-8.49969
ot	-8.49995
▁man	-8.50027
▁problem	-8.50109
德	-8.50231
▁him	-8.50253
▁19	-8.50275
一點	-8.50336
▁point	-8.50434
▁我想	-8.5063
美	-8.50646
公司	-8.50762
qu	-8.50795
之後	-8.50902
非	-8.50984
▁too	-8.51167
其中	-8.51278
▁story	-8.51331
bo	-8.51793
件	-8.51828
各位	-8.52012
格	-8.52034
中的	-8.52109
ab	-8.52134
▁few	-8.52183
出來	-8.52377
該	-8.5243
自己的	-8.52592
▁是	-8.52652
▁under	-8.52726
吧	-8.52803
快	-8.52885
▁feel	-8.52949
▁call	-8.52951
▁hand	-8.53128
▁next	-8.53279
通	-8.53306
ure	-8.53374
min	-8.5342
▁million	-8.53971
有些	-8.5398
然	-8.54365
畫	-8.54382
ine	-8.54389
▁real	-8.54409
的問題	-8.54416
pp	-8.54508
▁bit	-8.54509
ct	-8.5454
▁♫	-8.54553
接	-8.54588
保	-8.54836
相信	-8.5489
這樣的	-8.5492
生活	-8.55018
這裡	-8.55184
co	-8.55411
是個	-8.55477
▁home	-8.55573
ap	-8.5583
▁does	-8.55839
質	-8.55841
里	-8.56051
他的	-8.56238
則	-8.56253
單	-8.56412
▁able	-8.56467
病	-8.56594
pt	-8.56614
以及	-8.56863
▁data	-8.56904
▁不	-8.56906
tor	-8.56966
▁health	-8.56975
▁may	-8.57149
▁between	-8.57187
ight	-8.57211
科技	-8.5766
由	-8.57784
▁te	-8.57998
步	-8.57999
結果	-8.58265
os	-8.58276
▁again	-8.58322
如此	-8.58892
拿	-8.58956
費	-8.59091
腦	-8.59232
管	-8.59345
▁went	-8.59352
權	-8.59582
那個	-8.59636
▁came	-8.59783
▁question	-8.60224
安	-8.60237
上的	-8.60242
-	-8.605
百	-8.60514
正在	-8.60726
決定	-8.60762
也是	-8.60889
微	-8.60923
更多	-8.61062
的方式	-8.61078
錢	-8.61143
▁care	-8.61232
und	-8.61402
一直	-8.61547
的東西	-8.61576
▁per	-8.61875
▁believe	-8.61921
想像	-8.61948
em	-8.62013
一下	-8.6203
20	-8.62066
告訴	-8.62075
只有	-8.62076
生命	-8.62149
▁become	-8.62176
師	-8.62231
▁used	-8.62332
▁far	-8.62583
be	-8.62584
層	-8.62591
變	-8.62771
是一個	-8.62912
▁second	-8.63295
▁war	-8.63355
如果	-8.63396
遠	-8.63405
解	-8.63443
▁course	-8.63465
關	-8.63521
人的	-8.6353
過去	-8.63574
這是	-8.6358
代	-8.636
直	-8.63792
進行	-8.63895
故事	-8.639
不能	-8.63918
還是	-8.63939
ba	-8.63976
算	-8.63996
cy	-8.64078
▁ago	-8.64128
▁plan	-8.64183
少	-8.64203
▁small	-8.6426
像是	-8.64288
red	-8.64402
導	-8.64441
▁en	-8.64477
end	-8.64489
不同的	-8.64556
對於	-8.64567
巴	-8.64574
▁fi	-8.64745
為了	-8.64874
▁technology	-8.65004
細胞	-8.65005
▁read	-8.65032
發展	-8.6528
▁謝謝	-8.6558
案	-8.65629
錯	-8.65663
已	-8.65783
未來	-8.65933
喜歡	-8.65958
的地方	-8.66198
ary	-8.66351
收	-8.66409
還有	-8.66419
關於	-8.66564
▁maybe	-8.66592
的事	-8.66595
便	-8.66714
早	-8.66772
制	-8.66844
死	-8.66888
▁hard	-8.6689
方式	-8.66896
節	-8.66948
活	-8.67059
來說	-8.67339
▁space	-8.67389
▁children	-8.67448
▁ch	-8.67464
▁ask	-8.67557
▁j	-8.67567
找到	-8.67749
▁person	-8.67768
ition	-8.67838
樣	-8.67838
ism	-8.6834
fi	-8.68346
▁2	-8.68392
▁tri	-8.68493
待	-8.68751
率	-8.6905
選	-8.69109
首	-8.6959
形	-8.69669
▁因此	-8.69679
變成	-8.69755
▁power	-8.69839
消	-8.69849
▁light	-8.69928
▁trans	-8.70116
產生	-8.70544
推	-8.70588
▁hi	-8.7063
存在	-8.70803
▁doesn	-8.70821
感覺	-8.70975
條	-8.7107
▁10	-8.71138
來自	-8.71172
專	-8.71203
認	-8.71211
▁four	-8.71229
電腦	-8.71258
越	-8.71289
女性	-8.71397
經濟	-8.71412
同時	-8.71451
選擇	-8.71627
▁app	-8.71632
玩	-8.71779
白	-8.71827
創造	-8.72148
▁always	-8.72149
▁也	-8.72167
che	-8.72252
住	-8.72358
即	-8.72392
fe	-8.72483
▁experience	-8.72522
往	-8.72551
熱	-8.72551
別	-8.72589
▁form	-8.72797
奇	-8.72949
今天	-8.73009
女	-8.73017
是在	-8.73197
角	-8.73197
好的	-8.73323
服	-8.7351
近	-8.73627
gg	-8.73633
哪	-8.7382
科學	-8.73921
▁vi	-8.73956
密	-8.74049
真正	-8.74124
rate	-8.74178
▁less	-8.74522
門	-8.74776
▁create	-8.74832
一位	-8.75101
50	-8.75102
因	-8.7512
孩子	-8.7512
請	-8.75251
▁還有	-8.75262
ish	-8.75335
▁ever	-8.75434
▁從	-8.75838
兩個	-8.75853
技術	-8.75936
當時	-8.76033
神	-8.76046
部分	-8.76092
並不	-8.76136
新的	-8.76167
樂	-8.7621
簡單	-8.7622
組織	-8.76406
比較	-8.76406
第一	-8.76454
城市	-8.76603
one	-8.76679
▁wanted	-8.76847
▁lead	-8.77068
結	-8.77114
整	-8.77295
月	-8.77462
台	-8.77635
▁inter	-8.77887
區	-8.77953
火	-8.7806
象	-8.78154
政府	-8.78159
起來	-8.78198
▁dr	-8.78262
▁creat	-8.78288
▁並	-8.78535
朋友	-8.78552
大腦	-8.7858
兒	-8.78763
▁r	-8.78772
組	-8.78787
▁fe	-8.78818
落	-8.78915
▁am	-8.7893
解決	-8.7896
──	-8.7908
cra	-8.79237
▁away	-8.79341
卡	-8.79345
▁face	-8.79923
維	-8.80038
▁sort	-8.80039
less	-8.80157
球	-8.80361
▁你們	-8.80365
聲	-8.8037
表	-8.80444
動物	-8.80546
看看	-8.80566
▁working	-8.80709
這麼	-8.80791
▁al	-8.80807
▁它們	-8.8096
▁好	-8.80996
▁everything	-8.81052
產	-8.8107
pl	-8.81086
是我們	-8.81131
羅	-8.81152
▁looking	-8.81343
引	-8.8135
離	-8.81494
資料	-8.81631
能力	-8.81655
ff	-8.81959
半	-8.82
▁country	-8.82084
口	-8.82339
現	-8.82369
ho	-8.82394
號	-8.82444
▁1	-8.82502
▁set	-8.82553
led	-8.82702
bu	-8.82712
全球	-8.82812
環境	-8.82824
一起	-8.82905
ors	-8.82975
▁reason	-8.8313
▁就是	-8.8329
ran	-8.83438
為什麼	-8.83502
▁comp	-8.83548
網路	-8.83634
fa	-8.83698
▁done	-8.83791
▁move	-8.83818
健康	-8.83856
連	-8.8391
▁我的	-8.83914
19	-8.84073
▁while	-8.84099
提供	-8.84179
▁old	-8.84236
布	-8.84308
二	-8.84345
幫助	-8.84386
tu	-8.84494
▁whole	-8.84589
▁open	-8.84663
不知道	-8.84676
ug	-8.84745
▁le	-8.84859
未	-8.84966
另一	-8.85052
尼	-8.85183
一次	-8.85343
▁future	-8.85394
▁em	-8.85479
記	-8.85482
是否	-8.85558
man	-8.85749
集	-8.85765
態	-8.85811
報	-8.85991
va	-8.86161
舉	-8.86314
▁process	-8.86315
▁information	-8.86315
讓我	-8.86406
▁means	-8.86413
con	-8.8654
牠們	-8.8654
tain	-8.86621
▁men	-8.8678
英	-8.8678
av	-8.8681
各	-8.86851
約	-8.87011
是什麼	-8.87023
▁enough	-8.87028
ite	-8.87068
機會	-8.87293
棒	-8.87315
fer	-8.87325
▁moment	-8.87516
造	-8.87623
總	-8.87673
▁building	-8.87783
叫	-8.87877
ving	-8.87998
一切	-8.88012
思考	-8.88014
年前	-8.88164
式	-8.88167
之一	-8.8818
吃	-8.88217
▁social	-8.8824
關係	-8.88328
整個	-8.88416
▁job	-8.88471
▁但我	-8.88484
講	-8.88628
地方	-8.88705
▁body	-8.88727
排	-8.88762
▁mind	-8.88854
元	-8.88924
▁without	-8.88944
▁earth	-8.89164
眼	-8.892
ating	-8.89273
▁five	-8.89318
是因為	-8.89427
▁case	-8.89506
go	-8.897
▁best	-8.8971
身體	-8.89977
照片	-8.89994
mit	-8.90115
▁name	-8.90249
重要	-8.90301
nd	-8.90304
cent	-8.90415
學習	-8.90485
有一個	-8.90486
port	-8.9078
vo	-8.90814
ring	-8.90828
出現	-8.90921
裝	-8.91146
▁walk	-8.91236
ize	-8.91237
▁pi	-8.91284
之間	-8.91301
ling	-8.91366
行為	-8.91378
▁group	-8.91383
找	-8.91412
展	-8.91428
▁ju	-8.91433
時候	-8.91458
▁left	-8.91699
資訊	-8.91726
▁thinking	-8.91805
造成	-8.91825
演	-8.91861
之前	-8.92066
king	-8.92073
▁對	-8.92081
▁food	-8.92172
▁keep	-8.92285
甚至	-8.92356
▁kids	-8.92411
魚	-8.92436
戰	-8.92464
▁cha	-8.92513
成功	-8.92609
份	-8.92631
事情	-8.92634
tro	-8.92746
▁這就是	-8.92769
獨	-8.92852
▁win	-8.92988
the	-8.93043
眾	-8.93172
空	-8.93224
▁research	-8.93233
學生	-8.93324
▁ne	-8.9342
▁money	-8.93462
▁guy	-8.93493
▁el	-8.93573
留	-8.93614
殺	-8.93998
mer	-8.94035
▁answer	-8.94036
例子	-8.94095
在這	-8.94101
掉	-8.94267
足	-8.94414
ip	-8.94463
共	-8.94574
基本	-8.94647
per	-8.94657
感到	-8.94682
目	-8.94725
照	-8.94779
▁making	-8.94962
石	-8.94962
ral	-8.94968
▁所以我	-8.94999
適	-8.9504
建	-8.95059
pa	-8.95065
▁art	-8.95234
透過	-8.9524
▁v	-8.95409
低	-8.9546
性的	-8.955
▁book	-8.95534
波	-8.95545
▁young	-8.95602
讓我們	-8.95612
ial	-8.95633
第二	-8.95698
方法	-8.95732
風	-8.95735
lar	-8.9574
座	-8.95741
▁head	-8.95882
▁sense	-8.95976
▁cl	-8.95979
▁family	-8.96014
ak	-8.96022
▁teach	-8.96029
▁develop	-8.96048
▁computer	-8.96172
個人	-8.96408
命	-8.96592
計畫	-8.96764
▁project	-8.9688
置	-8.96906
▁gu	-8.96949
▁ja	-8.96955
語	-8.96989
精	-8.97221
▁city	-8.97221
數據	-8.97249
▁imagine	-8.97418
·	-8.97435
六	-8.97674
所有的	-8.97722
市	-8.97795
預	-8.97821
測	-8.98013
ture	-8.98121
▁times	-8.98167
up	-8.98196
▁side	-8.98228
▁dec	-8.98384
試	-8.98509
州	-8.98715
▁matter	-8.98756
row	-8.98777
▁mis	-8.98779
稱	-8.98781
▁lives	-8.98802
久	-8.99037
par	-8.99093
擁有	-8.99139
▁energy	-8.99158
act	-8.99169
買	-8.99239
調	-8.99271
到了	-8.9928
基因	-8.994
非洲	-8.99613
失	-8.99688
了一個	-8.99943
▁close	-8.99955
有人	-9.00048
▁planet	-9.00092
▁build	-9.00215
建築	-9.00216
山	-9.00297
聲音	-9.00471
養	-9.00625
血	-9.00666
運	-9.00671
ability	-9.00706
果	-9.0076
press	-9.00789
▁bring	-9.00846
▁science	-9.00871
ki	-9.00907
▁hope	-9.00987
或是	-9.00992
地球	-9.01085
止	-9.01109
自然	-9.01134
設	-9.01211
▁such	-9.0127
教育	-9.01297
gen	-9.01585
we	-9.01618
誰	-9.01655
今	-9.0172
60	-9.0174
納	-9.0178
ized	-9.01881
主義	-9.01889
送	-9.01904
經	-9.02022
getting	-9.02092
素	-9.0232
客	-9.02321
製造	-9.02356
▁picture	-9.02363
▁sound	-9.02423
▁以及	-9.02527
安全	-9.02652
ton	-9.02679
▁basic	-9.02708
rs	-9.02763
▁across	-9.02781
射	-9.02823
▁pass	-9.02872
▁share	-9.02898
驚	-9.02906
▁room	-9.02979
▁remember	-9.03117
望	-9.03154
▁事實上	-9.03319
激	-9.0337
是我	-9.03384
▁both	-9.03413
然後	-9.03507
ps	-9.03551
▁global	-9.03665
▁seem	-9.03715
qui	-9.03719
▁200	-9.03743
use	-9.03768
ship	-9.03789
▁allow	-9.03819
ie	-9.03858
存	-9.03872
土	-9.03877
黑	-9.03884
son	-9.03954
▁government	-9.04259
空間	-9.04308
音樂	-9.04319
的話	-9.04488
hi	-9.04513
學校	-9.04524
最後	-9.04573
息	-9.04679
▁product	-9.04744
pla	-9.04842
▁often	-9.0493
情況	-9.04939
普	-9.04942
資	-9.04953
▁large	-9.05071
覺	-9.05103
處理	-9.05137
症	-9.05281
食物	-9.05336
▁當然	-9.05358
建立	-9.05437
▁sw	-9.05476
▁week	-9.05554
▁probably	-9.05673
▁ti	-9.06017
讀	-9.06061
hu	-9.06074
▁3	-9.06098
可能會	-9.06112
底	-9.06146
10	-9.06374
學家	-9.06378
▁你可以	-9.06381
穿	-9.06409
ose	-9.06414
所以	-9.06431
站	-9.06528
顯	-9.06643
食	-9.06706
網	-9.0672
滿	-9.06796
就像	-9.06854
▁line	-9.06936
▁sc	-9.07112
曾	-9.07133
做的	-9.07215
▁someone	-9.07288
換	-9.0759
剛	-9.07743
▁once	-9.0779
▁pretty	-9.0781
land	-9.07825
的事情	-9.07969
斷	-9.07985
傷	-9.0811
特別	-9.08132
的故事	-9.08315
運動	-9.08364
塊	-9.08429
▁child	-9.08474
的時間	-9.0852
12	-9.08613
nu	-9.08631
▁o	-9.08701
▁image	-9.08703
都有	-9.08915
列	-9.09052
▁就像	-9.09079
目標	-9.09243
隨	-9.09284
聯	-9.09364
除	-9.0941
▁else	-9.09419
wi	-9.0945
▁air	-9.09619
having	-9.09633
她們	-9.09643
文化	-9.09651
刻	-9.09663
合作	-9.09777
晚	-9.09814
至	-9.0984
▁happened	-9.09869
▁讓	-9.09883
▁pain	-9.1009
幫	-9.10163
歷史	-9.10213
▁learn	-9.10296
超	-9.10306
▁control	-9.10447
▁girl	-9.10491
do	-9.10531
阿	-9.10581
億	-9.10597
▁simple	-9.10627
▁community	-9.10763
▁countries	-9.10763
代表	-9.1103
林	-9.11121
▁anything	-9.11127
南	-9.11263
藥	-9.11367
▁imp	-9.11399
助	-9.11475
程	-9.11508
▁business	-9.11537
思	-9.11545
▁fun	-9.11552
▁half	-9.11583
hy	-9.11621
疾病	-9.11773
才能	-9.11928
有關	-9.11948
ft	-9.12035
政治	-9.12138
▁sea	-9.12153
▁billion	-9.12272
quite	-9.12285
▁na	-9.12435
標	-9.12446
▁yet	-9.12458
ake	-9.12463
令人	-9.12583
▁asked	-9.12646
▁single	-9.12692
▁public	-9.12734
只要	-9.12751
音	-9.12796
▁later	-9.12845
▁happen	-9.12911
▁turn	-9.12988
意思	-9.13033
▁living	-9.13185
ward	-9.13218
18	-9.13228
ator	-9.1326
護	-9.13264
way	-9.13307
移	-9.1334
▁interesting	-9.13478
實驗	-9.13496
mon	-9.13543
笑	-9.13618
界	-9.13702
治療	-9.13854
超過	-9.13893
有個	-9.13957
80	-9.14018
另一個	-9.14066
▁environment	-9.14133
核	-9.1418
她的	-9.14196
▁study	-9.14274
清	-9.14321
將會	-9.14345
▁du	-9.14487
室	-9.14546
看起來	-9.14564
▁且	-9.14652
▁sure	-9.14657
▁saw	-9.1468
就能	-9.14696
複雜	-9.14843
gi	-9.15135
科	-9.15138
▁bad	-9.1533
▁complete	-9.15363
《	-9.15504
》	-9.15504
源	-9.1553
米	-9.156
▁或	-9.15654
▁black	-9.15695
▁sub	-9.15741
幾乎	-9.15757
嚴	-9.15838
醫生	-9.15844
社區	-9.15936
控制	-9.15946
效	-9.16013
軍	-9.16029
項	-9.16048
神經	-9.16064
的工作	-9.16294
都會	-9.16302
▁coming	-9.16321
大約	-9.16337
影片	-9.16448
▁那是	-9.1649
▁所以我們	-9.16504
▁model	-9.16654
方面	-9.1672
分享	-9.16724
▁30	-9.16827
夫	-9.16846
▁50	-9.16881
▁instead	-9.16943
利用	-9.16957
ible	-9.16969
終	-9.17013
▁almost	-9.17039
年輕	-9.17155
▁以	-9.17209
▁要	-9.17213
]	-9.17281
▁disease	-9.17379
▁hear	-9.17379
▁當我	-9.17462
▁music	-9.17463
▁already	-9.17476
蘭	-9.17524
▁yes	-9.17584
詞	-9.17621
富	-9.1767
古	-9.1767
相當	-9.17739
假	-9.17755
改	-9.17879
▁test	-9.17882
▁lab	-9.17939
day	-9.1795
▁add	-9.17952
想法	-9.18005
求	-9.18005
具	-9.18017
fl	-9.18036
依	-9.18158
並不是	-9.18159
下來	-9.18225
▁deep	-9.18235
在這裡	-9.18267
目前	-9.18311
一天	-9.18329
ual	-9.18337
家庭	-9.18352
進入	-9.18566
▁thousand	-9.18697
▁seen	-9.18794
活動	-9.19044
▁machine	-9.19387
▁possible	-9.194
der	-9.19499
接受	-9.1953
容易	-9.19543
▁patient	-9.19635
史	-9.19642
靠	-9.19685
且	-9.19734
ities	-9.19783
樹	-9.19784
念	-9.19827
較	-9.1988
溫	-9.19884
▁level	-9.19884
▁cells	-9.19918
▁nothing	-9.19941
▁heart	-9.19945
重要的	-9.19995
▁met	-9.20167
過程	-9.20191
▁game	-9.20212
短	-9.20232
▁house	-9.20278
▁watch	-9.20282
▁cur	-9.20417
回到	-9.20417
▁whether	-9.20432
我想	-9.20666
▁history	-9.20683
會有	-9.20733
▁dollars	-9.20833
營	-9.20883
創	-9.20957
通常	-9.21085
▁inside	-9.21195
▁makes	-9.21198
反應	-9.21209
bra	-9.21302
答案	-9.21302
▁sometimes	-9.21338
採	-9.21387
一定	-9.21425
言	-9.21463
30	-9.21527
▁states	-9.21592
oc	-9.21765
段	-9.21852
擊	-9.21994
▁myself	-9.21995
bl	-9.22058
靈	-9.22147
保護	-9.22228
▁speak	-9.22249
參與	-9.22377
▁har	-9.22516
包	-9.2255
支	-9.22652
復	-9.22811
▁leg	-9.22867
▁six	-9.22996
百萬	-9.23007
ious	-9.23089
ron	-9.2329
大學	-9.23299
做出	-9.23343
▁red	-9.23491
製	-9.23495
▁age	-9.23601
油	-9.23634
▁mother	-9.23687
▁language	-9.2384
院	-9.23887
▁low	-9.2392
意義	-9.24129
巨	-9.24151
▁piece	-9.24152
小時	-9.24161
商	-9.24171
多少	-9.24224
for	-9.24245
▁since	-9.24256
ner	-9.24302
▁為什麼	-9.24365
▁tu	-9.24404
▁happens	-9.24431
▁如果我們	-9.24462
價值	-9.24522
▁cap	-9.24666
▁within	-9.24683
語言	-9.24685
▁或是	-9.24689
慢	-9.24724
▁ways	-9.24827
哈	-9.24829
端	-9.24881
農	-9.24881
衛	-9.25038
致	-9.25072
劇	-9.2509
世紀	-9.25094
世界上	-9.25208
▁law	-9.25383
大部分	-9.25401
播	-9.25458
些	-9.25583
完成	-9.25645
▁run	-9.25654
救	-9.25721
▁until	-9.25723
▁discover	-9.25779
▁order	-9.2578
每個	-9.25852
工具	-9.25857
▁stop	-9.25868
構	-9.25879
▁stuff	-9.25879
▁state	-9.25888
領	-9.25913
隊	-9.25924
▁days	-9.25956
▁接著	-9.26043
承	-9.26091
成長	-9.26132
宇宙	-9.26197
▁program	-9.26264
有點	-9.26391
也不	-9.2641
ga	-9.26473
伊	-9.26515
親	-9.26537
▁figure	-9.26568
▁stories	-9.26568
官	-9.26728
▁organ	-9.26775
▁particular	-9.26834
▁certain	-9.26888
▁africa	-9.26975
的世界	-9.27074
▁class	-9.27156
▁我認為	-9.27172
uc	-9.27229
各種	-9.27232
...	-9.273
升	-9.27315
▁top	-9.27395
▁words	-9.27401
追	-9.27476
▁wrong	-9.27584
不要	-9.27599
▁我們可以	-9.27628
盡	-9.27691
停	-9.27733
▁而是	-9.27906
ning	-9.27939
▁self	-9.28021
課	-9.28068
舞	-9.28176
挑戰	-9.28234
ger	-9.28238
▁那麼	-9.28305
▁problems	-9.2834
小孩	-9.28386
益	-9.28447
科學家	-9.28501
在一起	-9.28764
▁sy	-9.28816
▁goes	-9.28824
變得	-9.28842
air	-9.28876
藝術	-9.28882
人生	-9.28887
▁night	-9.28914
自由	-9.291
景	-9.29146
繼續	-9.29209
▁american	-9.29292
ang	-9.2935
系	-9.29368
某	-9.29372
狀況	-9.29374
世	-9.29449
那麼	-9.2945
fo	-9.29491
▁entire	-9.29537
▁true	-9.29539
實際上	-9.29554
機器人	-9.29603
▁mu	-9.29703
切	-9.29901
十年	-9.29921
▁everyone	-9.29932
▁robot	-9.30034
死亡	-9.30144
▁stand	-9.30171
影	-9.30236
的方法	-9.30239
證	-9.30277
▁free	-9.30281
查	-9.30294
▁result	-9.30362
差	-9.3063
▁[	-9.30704
70	-9.30913
▁hundred	-9.30971
做了	-9.31001
重新	-9.31012
級	-9.31015
把它	-9.3106
中心	-9.31093
▁step	-9.31115
不到	-9.31171
▁video	-9.31361
united	-9.31578
更好	-9.31628
▁team	-9.31631
ach	-9.31696
中國	-9.31887
▁fast	-9.31903
紅	-9.3192
仍然	-9.31936
▁must	-9.3197
很好	-9.31996
▁woman	-9.32033
努力	-9.32036
印	-9.32107
尋	-9.3214
聽到	-9.32237
line	-9.32311
每天	-9.32496
力量	-9.32503
解釋	-9.32533
速	-9.32538
light	-9.32641
模式	-9.32666
▁though	-9.32745
cal	-9.32754
飛	-9.32784
▁每	-9.32886
▁past	-9.32999
這件事	-9.33049
▁months	-9.33094
裏	-9.33105
叫做	-9.33185
機器	-9.33198
▁ok	-9.33269
勢	-9.33276
派	-9.33276
模	-9.33288
嘗試	-9.33292
▁issue	-9.33338
害	-9.33373
持續	-9.33392
▁knew	-9.33447
包括	-9.33447
太陽	-9.33456
修	-9.33503
▁saying	-9.33543
必	-9.33559
遊戲	-9.33676
幾個	-9.33693
▁grow	-9.33749
義	-9.33752
易	-9.33895
而言	-9.33918
就可以	-9.33931
▁cost	-9.33943
患	-9.3396
▁exist	-9.34119
做到	-9.34143
▁cancer	-9.34145
用來	-9.34148
行動	-9.34186
▁full	-9.34219
八	-9.34247
▁star	-9.34248
個月	-9.34323
價	-9.34354
理解	-9.344
▁market	-9.34421
▁我在	-9.34455
11	-9.34506
ative	-9.34527
經歷	-9.34558
概念	-9.34657
也會	-9.34738
▁challenge	-9.34795
▁meet	-9.34833
▁amazing	-9.34881
看見	-9.34973
試著	-9.35039
冰	-9.35054
▁individual	-9.35112
北	-9.35112
▁kill	-9.35121
ped	-9.35127
讓你	-9.35131
ex	-9.35149
連結	-9.35196
帶來	-9.35362
▁wasn	-9.35433
付	-9.3546
抗	-9.35493
倍	-9.35577
受到	-9.35655
▁became	-9.3581
境	-9.35921
優	-9.36043
▁你會	-9.36085
chi	-9.36139
河	-9.36277
▁不過	-9.36353
ris	-9.36394
板	-9.36395
不斷	-9.36455
別人	-9.36569
職	-9.3663
log	-9.36648
fin	-9.36695
90	-9.36803
歌	-9.36806
▁micro	-9.36806
左	-9.36865
經驗	-9.3687
▁rest	-9.36897
▁education	-9.36924
配	-9.37042
身上	-9.37105
▁讓我們	-9.37194
防	-9.37279
園	-9.37279
▁value	-9.37516
▁connect	-9.37601
運作	-9.37628
▁against	-9.37667
▁比如	-9.3782
▁term	-9.37906
增加	-9.37959
電影	-9.38003
雙	-9.38051
▁這種	-9.38056
的想法	-9.38068
街	-9.38111
檢	-9.38111
顯示	-9.38121
作品	-9.38159
▁says	-9.38189
▁tr	-9.38268
▁beautiful	-9.3835
居	-9.38427
▁learned	-9.38436
▁100	-9.38554
題	-9.38649
▁force	-9.38667
▁everybody	-9.38829
▁follow	-9.38829
週	-9.38829
▁pay	-9.38855
▁u	-9.38892
▁train	-9.38906
病人	-9.39008
積	-9.3907
面對	-9.39137
跑	-9.39191
七	-9.39312
印度	-9.39353
▁cause	-9.39397
啊	-9.39432
廣	-9.39487
▁collect	-9.39493
▁或者	-9.39528
疑	-9.39614
紙	-9.39675
或許	-9.39699
▁一個	-9.39798
牠	-9.39896
限	-9.399
▁oh	-9.39914
倫	-9.39917
▁leave	-9.39918
投	-9.39999
句	-9.40039
協助	-9.40047
議	-9.40093
▁friends	-9.40104
清楚	-9.40222
賽	-9.40283
通過	-9.4046
絕	-9.40477
蓋	-9.40649
▁land	-9.40661
以前	-9.40673
記得	-9.40732
▁heard	-9.40866
觀察	-9.40904
▁最後	-9.40942
▁prop	-9.41014
當中	-9.4106
看到的	-9.41147
規	-9.41421
蟲	-9.41448
▁n	-9.41476
部份	-9.41563
▁ideas	-9.41629
▁drug	-9.41723
▁exactly	-9.41758
▁support	-9.41819
▁clear	-9.41945
▁isn	-9.42067
女孩	-9.4218
▁我要	-9.4226
ze	-9.42316
▁color	-9.42383
▁super	-9.42493
初	-9.42503
ny	-9.42521
▁再	-9.42554
▁object	-9.42565
▁cell	-9.42624
▁mass	-9.42652
ology	-9.42682
▁當你	-9.42751
緊	-9.42753
▁difference	-9.42815
▁engine	-9.42815
▁drive	-9.42828
唯一	-9.42863
taking	-9.42914
準備	-9.42956
架	-9.43066
▁themselves	-9.43066
▁fra	-9.43101
辦	-9.43151
ological	-9.43152
▁students	-9.43198
▁也就是	-9.43211
真實	-9.43282
▁society	-9.43317
第一個	-9.43333
分鐘	-9.43355
▁company	-9.4338
容	-9.43398
幸	-9.43431
也有	-9.43438
臉	-9.43443
在那	-9.43486
接下來	-9.43489
▁也許	-9.43609
右	-9.43632
事物	-9.43642
200	-9.43732
▁我是	-9.43786
曲	-9.43821
隻	-9.43917
▁ocean	-9.43948
▁couple	-9.43948
人口	-9.43952
背	-9.44002
餐	-9.44011
支持	-9.44018
▁我們的	-9.44019
那裡	-9.44126
▁risk	-9.44144
彈	-9.44201
結構	-9.4422
漸	-9.44328
▁natural	-9.44392
辦法	-9.44497
資源	-9.44598
何	-9.44621
▁protect	-9.44658
一般	-9.44668
during	-9.4474
而且	-9.44796
▁listen	-9.44872
▁view	-9.44902
母	-9.44953
評	-9.44965
怎樣	-9.44968
破	-9.45086
跳	-9.45157
▁然而	-9.45162
船	-9.45221
注	-9.45225
如果你	-9.45236
族	-9.45322
▁safe	-9.45345
▁word	-9.45377
▁gene	-9.45406
▁material	-9.45414
缺	-9.45414
主要	-9.45417
▁decided	-9.45433
▁front	-9.45543
ular	-9.4556
ever	-9.45574
▁built	-9.45606
海洋	-9.45685
▁produce	-9.45702
▁personal	-9.4571
團	-9.45731
▁along	-9.45737
▁沒有	-9.45849
異	-9.45855
▁sun	-9.4589
事實	-9.45923
▁甚至	-9.45938
ib	-9.4595
15	-9.46037
▁hold	-9.4605
領域	-9.46319
年代	-9.46386
恐	-9.46445
▁focus	-9.46511
藥物	-9.46624
某些	-9.46717
▁yea	-9.46972
▁fish	-9.47043
沙	-9.47097
產品	-9.47113
ists	-9.47124
▁culture	-9.47162
訊息	-9.47172
木	-9.47228
房	-9.47242
▁god	-9.47341
ned	-9.47346
治	-9.4735
▁common	-9.47426
總是	-9.47486
根	-9.47517
▁die	-9.47744
探	-9.47745
離開	-9.47873
▁ourselves	-9.4795
討論	-9.48031
▁middle	-9.48081
寶	-9.48081
腳	-9.48147
威	-9.48148
數字	-9.48207
▁sl	-9.48266
▁但我們	-9.4833
not	-9.48344
大概	-9.4836
▁當我們	-9.48476
有趣的	-9.48482
▁nature	-9.48565
原因	-9.48667
▁experiment	-9.48677
的生活	-9.48721
根本	-9.48778
▁species	-9.48809
▁short	-9.48892
自我	-9.48908
塔	-9.48942
▁america	-9.48973
▁bar	-9.48982
迷	-9.49009
演講	-9.49121
▁phone	-9.49145
▁feeling	-9.4916
生產	-9.49183
太空	-9.49235
ping	-9.49292
cho	-9.49444
▁break	-9.49476
▁solution	-9.49543
▁india	-9.49588
那樣	-9.49656
女人	-9.49684
▁spend	-9.49735
▁universe	-9.49744
索	-9.4987
▁questions	-9.49905
▁death	-9.50021
▁type	-9.50087
示	-9.50174
毒	-9.50331
lt	-9.50375
ase	-9.50454
程式	-9.50474
ets	-9.50477
▁write	-9.50509
ization	-9.50547
父母	-9.50595
細	-9.5068
輸	-9.50687
我們可以	-9.50754
out	-9.50821
電話	-9.50842
bb	-9.50876
▁difficult	-9.5089
放在	-9.51314
是一種	-9.51374
市場	-9.5142
▁deal	-9.51452
作為	-9.51525
拍	-9.51564
有很多	-9.51587
spect	-9.51588
並沒有	-9.516
爭	-9.51623
▁somebody	-9.51639
讓人	-9.51672
降	-9.51694
▁hours	-9.51715
▁south	-9.51722
▁arm	-9.51753
based	-9.51757
曾經	-9.51871
想到	-9.51883
簡	-9.51962
全世界	-9.52132
夠	-9.52215
▁15	-9.52254
亮	-9.52256
▁wait	-9.52262
醫療	-9.52465
感受	-9.52485
▁fail	-9.52535
▁je	-9.52535
控	-9.52583
▁雖然	-9.52601
聚	-9.52738
仍	-9.52788
頂	-9.52807
版	-9.52807
骨	-9.52807
▁rather	-9.52808
諾	-9.52876
▁white	-9.52946
▁並且	-9.5298
分子	-9.53002
潛	-9.53084
移動	-9.5315
聖	-9.53223
計	-9.53278
裡面	-9.53298
惡	-9.53431
▁emotion	-9.53501
▁ob	-9.53505
企業	-9.53511
可以看到	-9.53518
喜	-9.53567
彼此	-9.53574
▁於是	-9.53639
♪	-9.5364
一張	-9.5364
▁early	-9.53642
▁讓我	-9.53673
▁learning	-9.537
艾	-9.5371
▁huge	-9.53922
▁center	-9.54032
看著	-9.54032
▁street	-9.54062
每一個	-9.54128
▁para	-9.54131
智	-9.54199
碼	-9.54199
輕	-9.54242
這項	-9.54348
取得	-9.54354
一項	-9.54374
哥	-9.5448
▁doctor	-9.54483
▁itself	-9.54691
▁couldn	-9.54713
來看	-9.5474
▁reach	-9.54777
第一次	-9.54834
▁behavior	-9.54903
▁economic	-9.54903
服務	-9.54917
▁complex	-9.54974
地區	-9.5498
▁我會	-9.54998
que	-9.5518
gue	-9.55255
▁internet	-9.55257
▁fear	-9.55272
第	-9.55312
▁happening	-9.55368
▁expect	-9.55398
福	-9.55469
媒體	-9.55481
在那裡	-9.55567
▁若	-9.55621
▁blood	-9.55683
建造	-9.55735
▁third	-9.55825
典	-9.55825
物質	-9.55825
▁circ	-9.5584
▁felt	-9.55917
狀	-9.55935
永遠	-9.55975
麻	-9.5611
▁40	-9.56126
▁near	-9.56171
▁relationship	-9.56182
施	-9.56182
和我	-9.56328
▁即使	-9.56334
困難	-9.56348
免	-9.56465
▁places	-9.5648
團隊	-9.56551
不再	-9.56586
istic	-9.56588
律	-9.56687
散	-9.56827
▁voice	-9.56828
▁effect	-9.56918
▁你知道	-9.56924
肉	-9.56972
都在	-9.57022
▁population	-9.57116
懷	-9.57116
壓	-9.57118
▁finally	-9.5721
▁animals	-9.57247
▁和	-9.57279
負	-9.57283
局	-9.57332
班	-9.57333
程度	-9.57494
▁green	-9.57621
▁mil	-9.5767
嗯	-9.57695
▁parents	-9.57767
投資	-9.57854
時代	-9.57866
料	-9.57895
退	-9.57913
▁local	-9.58094
東	-9.58108
願	-9.58172
相關	-9.58175
知識	-9.58222
這個問題	-9.58273
速度	-9.58291
▁而我	-9.5833
▁turns	-9.58376
美元	-9.58537
▁eat	-9.58592
同樣的	-9.58607
理論	-9.58612
偏	-9.58643
▁friend	-9.58711
▁dream	-9.58717
皮	-9.58789
▁cut	-9.58821
技	-9.58847
直接	-9.58852
▁choice	-9.58863
睡	-9.58937
40	-9.58951
紐約	-9.59087
han	-9.5921
▁least	-9.59232
▁access	-9.59305
▁companies	-9.59305
14	-9.59405
▁structure	-9.59452
▁created	-9.59458
暗	-9.59526
♫♫	-9.59535
戰爭	-9.59541
最近	-9.59555
▁worked	-9.59573
困	-9.5965
▁div	-9.59723
洞	-9.59748
▁decision	-9.59748
票	-9.59748
坦	-9.59749
有效	-9.59813
▁reality	-9.59912
不只是	-9.59925
這一	-9.59963
▁record	-9.59971
▁won	-9.60027
戶	-9.60045
▁outside	-9.60209
類似	-9.60289
▁oka	-9.60331
興	-9.60335
手機	-9.60362
▁rule	-9.60428
三個	-9.60493
▁因為我	-9.60536
奧	-9.60567
藏	-9.60567
病毒	-9.60586
順	-9.60642
壞	-9.60709
▁climate	-9.60791
頓	-9.60791
男	-9.60868
遺	-9.60941
val	-9.61044
▁political	-9.61091
母親	-9.61132
善	-9.61156
甚麼	-9.61167
區域	-9.61252
lan	-9.61276
犯	-9.61312
▁present	-9.61322
讓他們	-9.61349
味	-9.61392
if	-9.61518
一段	-9.61522
雷	-9.61543
16	-9.61571
的研究	-9.61629
坐	-9.61692
▁vari	-9.61738
爲	-9.61769
▁began	-9.61772
▁impact	-9.6179
或者	-9.61812
混	-9.61921
序	-9.61996
數學	-9.62085
注意	-9.62278
其他人	-9.6233
▁count	-9.6237
▁amount	-9.62376
最終	-9.62418
▁rep	-9.62448
▁yourself	-9.62528
開發	-9.6253
稱為	-9.62555
衣	-9.62605
表現	-9.62665
你可以	-9.6271
▁poor	-9.62725
▁network	-9.62757
▁easy	-9.62834
變化	-9.62876
▁invest	-9.62992
暴	-9.6301
▁media	-9.63044
▁fight	-9.63112
—	-9.6314
爸	-9.6314
九	-9.6314
▁gre	-9.63165
訊	-9.63193
▁fall	-9.63241
編	-9.63293
▁stay	-9.63297
▁pick	-9.63419
▁behind	-9.63447
什麽	-9.63447
領導	-9.63473
一年	-9.63576
▁perfect	-9.63602
▁field	-9.63756
確實	-9.63761
傳統	-9.63815
很重要	-9.63821
不可能	-9.63826
▁perhaps	-9.63832
脫	-9.63909
鏡	-9.63909
有可能	-9.63984
興趣	-9.63993
瑞	-9.64141
製作	-9.64207
迫	-9.64219
液	-9.64219
需	-9.64227
▁manage	-9.64282
賣	-9.64374
增	-9.64416
述	-9.64448
另外	-9.64538
▁measure	-9.64607
複	-9.6468
▁main	-9.6469
認識	-9.647
男人	-9.64758
禮	-9.64763
是由	-9.64765
▁buy	-9.64781
有多	-9.64799
當然	-9.64838
▁physical	-9.64841
▁boy	-9.64931
準	-9.64981
的原因	-9.65012
▁given	-9.65052
▁cities	-9.65088
英國	-9.65142
▁powerful	-9.6529
▁mov	-9.65308
能源	-9.65326
務	-9.65445
棄	-9.65467
▁minutes	-9.65485
▁movement	-9.65491
住在	-9.65587
痛	-9.65618
▁father	-9.65623
關鍵	-9.65632
二十	-9.65706
令	-9.65959
告訴我	-9.66068
旅	-9.66322
▁needed	-9.66357
▁shape	-9.6643
▁eyes	-9.66446
▁key	-9.66534
刺	-9.66571
隱	-9.66571
表示	-9.66589
▁scientists	-9.666
能量	-9.66631
弱	-9.6665
▁york	-9.6673
失去	-9.67004
▁wall	-9.67015
擴	-9.67048
的孩子	-9.67097
心理	-9.67102
形成	-9.67181
▁century	-9.67208
▁consider	-9.67209
▁tree	-9.67327
▁gave	-9.67332
▁seven	-9.67369
第三	-9.67407
現今	-9.67422
▁他說	-9.67423
醒	-9.67448
發明	-9.67481
現實	-9.67495
伴	-9.67528
作用	-9.67586
▁scale	-9.67628
給我	-9.67633
那種	-9.67676
▁generation	-9.6769
實驗室	-9.67706
但是	-9.67746
▁perform	-9.67786
情緒	-9.67852
pu	-9.67878
越來越	-9.68009
許	-9.68021
▁paper	-9.68066
冷	-9.6809
▁organization	-9.68101
絲	-9.6817
▁simply	-9.68171
功能	-9.68182
目的	-9.68228
完	-9.68312
捕	-9.68332
某種	-9.6846
診	-9.68493
▁conversation	-9.68574
展示	-9.68752
很難	-9.68767
阻	-9.68817
管理	-9.68871
▁longer	-9.69055
同樣	-9.69104
▁sent	-9.69116
▁north	-9.6915
▁major	-9.69387
▁known	-9.69444
▁interact	-9.69544
私	-9.6955
驗	-9.6962
華	-9.69632
植物	-9.69692
事件	-9.69742
至少	-9.69746
▁slow	-9.69829
這麼做	-9.69831
攝	-9.6987
暴力	-9.69934
一隻	-9.69999
▁strong	-9.70043
▁normal	-9.70124
13	-9.7017
臟	-9.70206
證明	-9.70327
內容	-9.70336
套	-9.70371
減少	-9.70388
▁neuro	-9.70415
機構	-9.7043
藍	-9.70453
也可以	-9.70503
想想	-9.7052
抱	-9.70536
▁sign	-9.70577
google	-9.70619
巧	-9.70619
警	-9.70698
筆	-9.70701
牛	-9.70701
啟	-9.70784
根據	-9.70789
尋找	-9.7079
form	-9.70821
訪	-9.70949
現象	-9.70961
預測	-9.70976
考	-9.70997
▁treat	-9.71018
融	-9.71032
▁explain	-9.71033
▁realized	-9.71065
祖	-9.71115
▁changed	-9.71166
掌	-9.71198
獲得	-9.71275
監	-9.7128
財	-9.71282
賴	-9.71365
訓練	-9.71366
充滿	-9.71374
time	-9.71385
▁我們需要	-9.71431
▁national	-9.71492
懂	-9.71531
判	-9.71615
▁size	-9.7162
▁fly	-9.71683
壓力	-9.71695
結束	-9.71704
精神	-9.71731
亂	-9.71782
print	-9.71809
趣	-9.71853
共同	-9.71884
有什麼	-9.71956
▁我知道	-9.7198
▁save	-9.71984
▁europe	-9.72033
▁china	-9.72035
也許	-9.72119
提出	-9.72199
縮	-9.722
島	-9.72285
酒	-9.72369
當地	-9.7239
io	-9.72396
牙	-9.72453
要求	-9.72704
野	-9.72874
測試	-9.72901
▁represent	-9.72959
到底	-9.72963
▁kid	-9.73007
▁solve	-9.73057
識	-9.73059
最大的	-9.73061
減	-9.7311
▁increase	-9.73213
否	-9.73327
▁begin	-9.73376
徵	-9.73382
忘	-9.73382
協	-9.73456
▁approach	-9.73467
▁send	-9.73509
倒	-9.73552
▁surface	-9.73553
竟	-9.73553
▁taken	-9.73556
▁map	-9.73569
得要	-9.73572
育	-9.73694
▁eight	-9.73721
覆	-9.73808
似乎	-9.73813
side	-9.73876
尺	-9.73893
佈	-9.73979
▁travel	-9.73979
說明	-9.7403
麥	-9.74064
grad	-9.74065
新聞	-9.7409
佛	-9.7415
▁office	-9.74156
▁turned	-9.74169
電子	-9.7421
遍	-9.74235
▁san	-9.74316
貝	-9.74407
▁dark	-9.74408
▁continue	-9.74493
並非	-9.74535
床	-9.74579
風險	-9.74591
快樂	-9.74632
燈	-9.74665
▁blue	-9.74669
還要	-9.74707
告訴你	-9.74827
老師	-9.749
擔	-9.74921
獎	-9.74923
▁attention	-9.74923
▁fire	-9.75077
▁wonder	-9.75174
意味著	-9.75182
mbi	-9.753
▁either	-9.75442
▁special	-9.75443
對我	-9.75521
民主	-9.75652
化學	-9.75694
van	-9.75785
姆	-9.75789
圈	-9.75789
▁lost	-9.7585
創新	-9.75861
持	-9.76003
▁pattern	-9.76138
▁draw	-9.76138
觀眾	-9.76191
估	-9.76225
▁happy	-9.76225
▁那就是	-9.76341
▁device	-9.76488
▁condition	-9.76488
險	-9.76561
章	-9.76575
上面	-9.76631
▁bio	-9.76633
規模	-9.76675
......	-9.76678
學到	-9.76703
達到	-9.76724
應用	-9.7675
實際	-9.76761
意識	-9.7687
模型	-9.76874
願意	-9.76877
隨著	-9.76909
靜	-9.77014
▁service	-9.77015
零	-9.77103
予	-9.77103
回答	-9.77197
十分	-9.77237
本身	-9.77245
洲	-9.77254
▁ground	-9.77279
婚	-9.77367
良	-9.77367
快速	-9.77441
▁provide	-9.77457
▁obvious	-9.77722
草	-9.77722
▁但這	-9.77751
▁chris	-9.7777
▁audience	-9.7781
父親	-9.77814
癌症	-9.77818
危險	-9.7799
▁film	-9.77991
瞭解	-9.78079
錯誤	-9.78178
以為	-9.78235
延	-9.78344
旁	-9.78434
uck	-9.78474
始	-9.78476
▁在我	-9.78485
izing	-9.78553
店	-9.78792
▁similar	-9.78881
時刻	-9.78912
男性	-9.78951
友	-9.78971
詩	-9.78971
▁born	-9.78979
▁medical	-9.79063
記憶	-9.79064
lock	-9.79138
lam	-9.79143
▁potential	-9.79151
件事	-9.7923
當你	-9.79245
▁hit	-9.79264
供	-9.79395
找出	-9.79504
▁quickly	-9.79511
衡	-9.79511
怪	-9.79586
議題	-9.79795
坐在	-9.79875
fu	-9.79928
▁beginning	-9.79975
▁absolute	-9.80055
擬	-9.80145
恐懼	-9.80237
運用	-9.80258
智慧	-9.80327
村	-9.80327
▁對吧	-9.80388
環	-9.80408
大多數	-9.80511
經過	-9.80576
人員	-9.80597
毛	-9.80601
擔心	-9.80603
具有	-9.8072
每個人都	-9.80723
▁因為我們	-9.80732
計算	-9.80807
浪	-9.81058
遭	-9.8115
堂	-9.81242
曼	-9.81334
廠	-9.81795
隔	-9.81795
若	-9.82616
傾	-9.82629
歐	-9.82717
堅	-9.82723
任	-9.8274
森	-9.82805
告	-9.82884
觸	-9.8314
吸	-9.83265
舊	-9.83377
樓	-9.83378
醫	-9.83383
雜	-9.83465
釋	-9.83481
夜	-9.83565
登	-9.83753
博	-9.83942
秒	-9.83942
爆	-9.84037
臨	-9.8405
洛	-9.8432
秘	-9.84415
似	-9.84478
悲	-9.8451
透	-9.84781
宣	-9.8489
損	-9.84986
突	-9.85248
享	-9.85611
猜	-9.85944
款	-9.85944
符	-9.86234
唱	-9.86427
萊	-9.86427
固	-9.86621
妳	-9.86717
默	-9.86912
畢	-9.87009
政	-9.87097
翻	-9.87204
陸	-9.87399
屬	-9.87424
王	-9.87497
帝	-9.87693
周	-9.87786
魯	-9.87791
袋	-9.87791
怕	-9.8788
輪	-9.87987
希	-9.88073
妙	-9.88085
乾	-9.88184
漫	-9.88381
歸	-9.88381
粒	-9.8848
糖	-9.88579
苦	-9.88671
焦	-9.88677
烈	-9.88776
範	-9.8897
術	-9.89087
堆	-9.89273
貴	-9.89373
遊	-9.89668
/	-9.90072
幻	-9.90173
牌	-9.90475
碰	-9.90777
顆	-9.90777
牆	-9.90777
乎	-9.90843
塞	-9.91081
迪	-9.91183
滅	-9.91284
繞	-9.91589
充	-9.9168
鳥	-9.91691
急	-9.91895
互	-9.92016
毀	-9.92202
按	-9.92305
尤	-9.92408
瓦	-9.92922
鐵	-9.92922
染	-9.92994
薩	-9.9313
討	-9.93208
旦	-9.93233
冒	-9.93336
虛	-9.93544
愈	-9.93648
含	-9.93846
吉	-9.93856
揮	-9.93856
替	-9.9396
炸	-9.9396
酷	-9.94065
衝	-9.94688
恩	-9.94799
勝	-9.95009
拜	-9.95115
禁	-9.95326
略	-9.95643
瑪	-9.95856
露	-9.95963
錄	-9.96051
植	-9.96204
究	-9.96279
守	-9.96282
游	-9.96603
q	-9.96694
勞	-9.9671
屋	-9.96818
菌	-9.96918
額	-9.9714
武	-9.97248
操	-9.9768
罪	-9.97999
忙	-9.98114
封	-9.98332
劑	-9.98879
貨	-9.99098
震	-9.99098
耳	-9.99208
授	-9.99428
介	-9.99428
奏	-9.99649
補	-9.99649
聊	-9.99649
培	-9.99759
逃	-9.9987
狗	-9.9987
蒙	-9.9987
值	-9.99908
雨	-9.99981
龍	-9.99981
逐	-10.0009
銷	-10.0031
途	-10.0042
裂	-10.0054
憂	-10.0087
頻	-10.0087
殘	-10.0109
黃	-10.0109
圍	-10.0131
跨	-10.0143
辨	-10.0143
贏	-10.0154
乳	-10.0166
毫	-10.0177
仰	-10.02
儀	-10.0211
繁	-10.0222
魔	-10.0245
幅	-10.0245
佳	-10.0302
載	-10.0313
習	-10.0314
階	-10.0335
伯	-10.0348
沉	-10.0348
遇	-10.0354
蒂	-10.0359
備	-10.0367
休	-10.0371
碳	-10.0382
勒	-10.0405
鼠	-10.0417
奈	-10.0417
侵	-10.0428
廳	-10.0463
輯	-10.0463
尊	-10.0475
庫	-10.0475
省	-10.0475
喔	-10.051
搞	-10.058
蜂	-10.0591
丁	-10.0592
顧	-10.0602
摩	-10.0603
決	-10.0609
槍	-10.0615
革	-10.0626
糟	-10.0627
鄰	-10.0627
青	-10.0639
既	-10.0639
絡	-10.0674
蘇	-10.0674
幹	-10.0686
雅	-10.0698
獲	-10.0711
援	-10.0722
麼	-10.0727
誌	-10.0746
丹	-10.0781
碎	-10.0805
粉	-10.0817
耗	-10.0829
剩	-10.0866
戴	-10.0878
殖	-10.0878
材	-10.0889
練	-10.089
勇	-10.0914
撞	-10.0975
抵	-10.0987
泡	-10.0987
箱	-10.0999
丟	-10.1012
城	-10.1022
肯	-10.1046
盤	-10.1061
抽	-10.1073
托	-10.1086
圓	-10.1098
傑	-10.1098
貼	-10.116
徑	-10.1172
洗	-10.1185
抓	-10.1185
香	-10.1185
司	-10.1194
劃	-10.1209
參	-10.1225
滑	-10.1235
伸	-10.1247
災	-10.126
搜	-10.1273
弟	-10.1298
紀	-10.1322
塑	-10.1336
擺	-10.1336
忽	-10.1336
篇	-10.1348
莉	-10.1348
蛋	-10.1361
浮	-10.1361
弄	-10.1361
航	-10.1374
股	-10.1425
肌	-10.1425
廢	-10.1438
歡	-10.145
鄉	-10.1463
癌	-10.1488
榮	-10.1515
凡	-10.1528
握	-10.1528
娜	-10.154
旋	-10.154
尾	-10.1566
蹤	-10.1579
朗	-10.1579
呼	-10.1592
誤	-10.1604
僅	-10.1641
描	-10.1657
繪	-10.1658
硬	-10.1684
緣	-10.1723
』	-10.1736
佔	-10.1736
尚	-10.1749
髮	-10.1749
烏	-10.1763
『	-10.1789
洋	-10.18
黨	-10.1829
據	-10.185
購	-10.1869
桌	-10.1869
頁	-10.1869
氧	-10.1882
續	-10.1895
擾	-10.1896
燒	-10.1896
貧	-10.1909
敢	-10.1936
池	-10.1936
驅	-10.1936
葉	-10.1936
稍	-10.1976
促	-10.199
跡	-10.2031
戀	-10.2058
朝	-10.2058
荷	-10.2058
偶	-10.2071
審	-10.2112
‧	-10.2112
岸	-10.214
茲	-10.214
純	-10.214
折	-10.2154
搭	-10.2154
喝	-10.2181
陷	-10.2195
批	-10.2209
賺	-10.2223
緩	-10.2264
疫	-10.2278
夏	-10.2292
寄	-10.2306
答	-10.2314
陰	-10.2334
孤	-10.2348
迎	-10.2348
健	-10.2362
鬱	-10.2362
彩	-10.2362
舒	-10.2362
谷	-10.2376
儲	-10.2418
療	-10.2431
漂	-10.2432
志	-10.2461
遞	-10.2461
窮	-10.2474
雲	-10.2489
歷	-10.2571
雪	-10.2575
末	-10.2618
脈	-10.2618
般	-10.2627
妹	-10.2632
鬥	-10.2632
埃	-10.2632
鼓	-10.2646
橋	-10.2647
乏	-10.2647
研	-10.2661
兵	-10.2661
獵	-10.2661
乘	-10.2705
肥	-10.2719
掃	-10.2763
珍	-10.2792
煩	-10.2821
爬	-10.2821
,	-10.2857
莎	-10.2866
售	-10.288
您	-10.288
淨	-10.291
珊	-10.2925
雖	-10.3029
麗	-10.3042
厭	-10.309
飲	-10.309
察	-10.3102
館	-10.3105
戲	-10.315
椅	-10.315
肢	-10.3165
誠	-10.3165
統	-10.3175
疾	-10.3194
尖	-10.3211
軌	-10.3211
校	-10.3238
邦	-10.3242
莫	-10.3288
孕	-10.3303
敗	-10.3379
鐘	-10.3387
避	-10.3395
兄	-10.3396
暫	-10.3396
辯	-10.3412
訴	-10.3442
暖	-10.3443
餘	-10.3443
響	-10.3458
郵	-10.3459
眠	-10.3459
耶	-10.3474
勵	-10.349
齡	-10.349
磁	-10.3537
酸	-10.3553
軟	-10.3573
寬	-10.3585
熟	-10.3616
殊	-10.3616
袖	-10.3616
振	-10.3632
閉	-10.3632
童	-10.3663
鬆	-10.368
夢	-10.3692
喬	-10.3696
蟻	-10.3712
宜	-10.3728
菜	-10.3761
功	-10.3781
踏	-10.3793
干	-10.3809
仿	-10.3842
腿	-10.3858
徒	-10.3907
故	-10.391
惑	-10.394
俄	-10.3956
偷	-10.3989
胎	-10.4006
午	-10.4022
•	-10.4039
捐	-10.4055
帳	-10.4072
啦	-10.4105
針	-10.4109
歧	-10.4139
凱	-10.4139
窗	-10.4139
喪	-10.4189
輛	-10.4189
慮	-10.4223
刑	-10.4223
械	-10.4223
譜	-10.424
搬	-10.4291
甲	-10.4291
潮	-10.4394
壁	-10.4411
障	-10.4428
垃	-10.4445
脆	-10.4463
涉	-10.448
聞	-10.4492
秀	-10.4515
豐	-10.455
偵	-10.4567
貓	-10.4585
辛	-10.4585
累	-10.4602
敏	-10.462
幼	-10.462
壯	-10.4637
銀	-10.4647
誕	-10.4655
遜	-10.4673
嚇	-10.469
盟	-10.469
蜜	-10.4708
鞋	-10.4708
臂	-10.4744
陽	-10.4758
陣	-10.4761
搖	-10.4761
永	-10.4777
蚊	-10.4779
串	-10.4815
候	-10.4827
席	-10.4833
壽	-10.4869
徹	-10.4923
賞	-10.4941
慈	-10.496
疊	-10.4978
鎮	-10.4978
荒	-10.4978
際	-10.4985
藉	-10.4994
執	-10.5025
肺	-10.5033
拼	-10.5033
奶	-10.5051
哲	-10.5088
譯	-10.5106
盒	-10.5106
閃	-10.5125
帕	-10.5143
瑚	-10.5143
擁	-10.5171
奴	-10.518
琴	-10.5181
泰	-10.5199
覽	-10.5218
朵	-10.5236
麽	-10.5255
é	-10.5255
躍	-10.5293
招	-10.5293
季	-10.5312
趨	-10.5312
麵	-10.5312
瓶	-10.533
漠	-10.533
孔	-10.5349
膜	-10.5368
菲	-10.5406
貌	-10.5406
夥	-10.5425
兆	-10.5425
敵	-10.5444
恢	-10.5463
晶	-10.5463
雞	-10.5463
遙	-10.5463
嘴	-10.5502
幣	-10.5502
敦	-10.5502
亦	-10.5521
訂	-10.5521
穆	-10.554
謝	-10.5556
柏	-10.556
燃	-10.5598
薪	-10.5618
副	-10.5637
諸	-10.5676
媽	-10.5695
翰	-10.5715
奮	-10.5734
湯	-10.5735
忍	-10.5735
渴	-10.5755
猶	-10.5755
姐	-10.5814
堡	-10.5834
賦	-10.5834
奪	-10.5854
妻	-10.5854
允	-10.5914
綠	-10.5931
艱	-10.5934
雄	-10.5952
杯	-10.5954
礦	-10.5974
腐	-10.5974
雕	-10.5974
鮮	-10.5974
龐	-10.5974
檔	-10.6014
峰	-10.6014
敘	-10.6055
父	-10.6082
哩	-10.6096
競	-10.6156
鋼	-10.6157
騙	-10.6198
喻	-10.6198
黎	-10.6198
羊	-10.6219
遷	-10.6219
迴	-10.6219
狂	-10.626
幕	-10.6301
裔	-10.6301
恆	-10.6301
邁	-10.6406
挑	-10.6426
衰	-10.6448
鏈	-10.6491
挺	-10.6512
裁	-10.6533
趕	-10.6533
沿	-10.6554
鎖	-10.6554
岩	-10.6554
昆	-10.6576
恨	-10.6597
灰	-10.6597
詢	-10.6597
煙	-10.6619
讚	-10.664
映	-10.6705
哭	-10.6727
橫	-10.6727
耐	-10.6748
噴	-10.6792
署	-10.6792
–	-10.6858
春	-10.6858
恰	-10.6902
尿	-10.6902
悅	-10.6924
膽	-10.6946
距	-10.6967
昂	-10.6968
泛	-10.6991
膠	-10.7013
玻	-10.7013
拖	-10.7035
責	-10.7079
泥	-10.7103
敬	-10.7125
督	-10.7125
稅	-10.7125
謂	-10.7148
謀	-10.7148
漢	-10.7171
邏	-10.7171
鯨	-10.7171
借	-10.7193
羞	-10.7239
菸	-10.7239
漁	-10.7239
飯	-10.7262
軸	-10.7308
庭	-10.7309
側	-10.7331
氏	-10.7354
販	-10.7377
廚	-10.7377
癒	-10.7377
瘧	-10.74
束	-10.7422
附	-10.7445
填	-10.7447
鯊	-10.7447
撒	-10.747
噢	-10.747
箭	-10.747
磨	-10.7541
罰	-10.7541
摧	-10.7541
祝	-10.7564
企	-10.7585
梯	-10.7588
謊	-10.7588
妮	-10.7612
棟	-10.7612
委	-10.7635
截	-10.7635
割	-10.7683
纖	-10.7683
扎	-10.7707
伍	-10.7731
抑	-10.7731
潔	-10.7779
田	-10.7779
黏	-10.7779
擠	-10.7803
着	-10.7852
申	-10.7876
牢	-10.7876
挖	-10.79
皆	-10.79
脂	-10.7925
駭	-10.7925
宮	-10.8023
腺	-10.8023
騎	-10.8073
捉	-10.8073
擅	-10.8098
欣	-10.8098
芬	-10.8098
誘	-10.8123
慶	-10.8173
紋	-10.8173
獻	-10.8173
揭	-10.8173
牧	-10.8198
插	-10.8223
漏	-10.8223
$	-10.8274
刊	-10.8274
弗	-10.835
康	-10.8375
歉	-10.8375
&	-10.8375
扭	-10.8401
腸	-10.8401
餓	-10.8401
藝	-10.8426
擋	-10.8427
盛	-10.8427
澳	-10.8427
賓	-10.8453
嘿	-10.8478
罕	-10.8504
猴	-10.853
蘋	-10.853
偉	-10.8607
胸	-10.8609
泳	-10.8609
簽	-10.8661
柯	-10.8661
盲	-10.8661
驟	-10.8661
績	-10.8688
訓	-10.8714
熊	-10.8714
央	-10.8714
埋	-10.8714
壤	-10.8741
齒	-10.8741
遵	-10.8741
饋	-10.8767
蠻	-10.8767
贊	-10.8767
刀	-10.8821
臘	-10.8821
輩	-10.8821
謎	-10.8874
措	-10.8901
哇	-10.8901
蠢	-10.8901
募	-10.8901
糊	-10.8928
拆	-10.8928
飾	-10.8955
框	-10.8955
獄	-10.8982
卵	-10.8982
欺	-10.8983
沃	-10.8983
鼻	-10.8983
猩	-10.901
籍	-10.901
傲	-10.901
厚	-10.901
掘	-10.901
冠	-10.9037
旗	-10.9064
凝	-10.9064
違	-10.9064
霍	-10.9064
薄	-10.9064
織	-10.909
癮	-10.9092
臺	-10.9119
聆	-10.912
脊	-10.912
盧	-10.9147
刷	-10.9147
晨	-10.9175
襲	-10.9203
胖	-10.9203
紐	-10.9257
魂	-10.9258
肩	-10.9314
瞬	-10.9343
儘	-10.9371
哦	-10.9371
鬼	-10.9428
掛	-10.9428
穴	-10.9456
渡	-10.9456
“	-10.9485
甜	-10.9485
厲	-10.9485
瑟	-10.9485
涵	-10.9485
瘋	-10.9513
嘛	-10.9513
綁	-10.9513
鍵	-10.9539
枝	-10.9571
滾	-10.9571
社	-10.9601
涯	-10.9629
鴉	-10.9629
慘	-10.9629
摺	-10.9629
擎	-10.9629
婦	-10.9656
鑽	-10.9658
蹟	-10.9687
梅	-10.9687
揚	-10.9716
柱	-10.9716
況	-10.9742
疼	-10.9775
陪	-10.9775
陳	-10.9775
掙	-10.9834
侶	-10.9864
餵	-10.9894
噸	-10.9923
甘	-10.9923
吹	-10.9953
濃	-10.9953
縫	-10.9983
匹	-11.0013
返	-11.0013
貸	-11.0013
桶	-11.0044
矛	-11.0044
均	-11.0071
遲	-11.0074
鵝	-11.0074
殼	-11.0104
鹽	-11.0104
虐	-11.0196
摸	-11.0196
滋	-11.0226
拋	-11.0227
韓	-11.0258
俱	-11.0258
崩	-11.0258
迅	-11.0258
灣	-11.032
辱	-11.032
醉	-11.032
循	-11.035
塗	-11.0351
豬	-11.0351
赫	-11.0351
滴	-11.0382
垂	-11.0382
諷	-11.0413
貿	-11.0414
屍	-11.0445
盾	-11.0445
域	-11.0471
”	-11.0477
囚	-11.0508
沮	-11.0508
躲	-11.0508
凌	-11.054
孫	-11.0572
豪	-11.0572
粹	-11.0572
撐	-11.0604
牽	-11.0604
彎	-11.0636
廉	-11.0636
濾	-11.0668
莊	-11.07
膀	-11.07
稀	-11.0733
姻	-11.0765
湖	-11.0798
煤	-11.0798
擦	-11.0798
爐	-11.0798
哺	-11.083
丈	-11.083
貪	-11.083
寧	-11.0863
櫃	-11.0896
紫	-11.0896
縱	-11.0929
餅	-11.0929
亡	-11.0994
昨	-11.0995
屠	-11.0995
叔	-11.0995
礙	-11.1028
濫	-11.1029
捲	-11.1029
炎	-11.1029
胡	-11.1029
飽	-11.1029
獅	-11.1062
呎	-11.1062
賈	-11.1062
寓	-11.1096
磅	-11.1096
隆	-11.1163
粗	-11.1163
蛛	-11.1163
艘	-11.1197
斥	-11.1197
寸	-11.1197
棲	-11.1231
仇	-11.1231
託	-11.1231
獸	-11.1231
礁	-11.1231
雌	-11.1231
剪	-11.1265
叛	-11.1265
籤	-11.1299
飢	-11.1299
后	-11.1299
藻	-11.1299
彙	-11.1403
氫	-11.1403
塵	-11.1403
危	-11.1428
輔	-11.1437
逆	-11.1438
剖	-11.1507
爛	-11.1507
皇	-11.1507
螢	-11.1542
牲	-11.1542
川	-11.1648
灌	-11.1648
欲	-11.1648
淡	-11.1648
役	-11.1684
杜	-11.1684
剝	-11.1684
婆	-11.172
桑	-11.172
灘	-11.172
伐	-11.1756
勃	-11.1756
棋	-11.1756
躺	-11.1756
耀	-11.1792
妥	-11.1792
芝	-11.1792
喊	-11.1828
京	-11.1828
債	-11.1828
松	-11.1828
茶	-11.1828
螞	-11.1828
輻	-11.19
佩	-11.19
坡	-11.19
喚	-11.19
愚	-11.1937
慾	-11.1937
俗	-11.1937
媒	-11.1967
攜	-11.1973
匯	-11.1973
姿	-11.1973
慰	-11.1973
詳	-11.1973
凍	-11.201
帽	-11.201
顛	-11.201
蠅	-11.201
戒	-11.2047
趟	-11.2047
酵	-11.2047
弦	-11.2047
汙	-11.2047
盪	-11.2047
柔	-11.2047
怎	-11.2082
鈕	-11.2121
繩	-11.2121
籌	-11.2121
冬	-11.2159
驕	-11.2159
廁	-11.2159
贈	-11.2159
蹈	-11.2196
禱	-11.2196
催	-11.2234
占	-11.2234
墨	-11.2234
髓	-11.2234
─	-11.2271
螺	-11.2271
僱	-11.2309
腎	-11.2309
憐	-11.2347
悟	-11.2347
惱	-11.2347
搶	-11.2347
葛	-11.2347
翼	-11.2385
冊	-11.2385
呀	-11.2385
澤	-11.2424
説	-11.2424
噪	-11.2424
糧	-11.2424
潤	-11.2462
娛	-11.2462
肝	-11.2462
欄	-11.2501
辭	-11.2501
址	-11.2501
惠	-11.2501
齊	-11.2501
另	-11.2502
[	-11.2532
仁	-11.254
穩	-11.2576
甚	-11.2577
罐	-11.2578
赤	-11.2578
賭	-11.2578
棵	-11.2578
脹	-11.2578
褲	-11.2578
桿	-11.2578
港	-11.2618
誇	-11.2618
盜	-11.2657
巢	-11.2657
准	-11.2696
廊	-11.2736
耍	-11.2736
珠	-11.2736
姊	-11.2815
懸	-11.2815
虎	-11.2815
策	-11.2894
醜	-11.2895
汀	-11.2895
李	-11.2936
惜	-11.2936
註	-11.2976
宿	-11.2976
胞	-11.3016
竭	-11.3017
衍	-11.3017
逮	-11.3058
呆	-11.3058
曉	-11.3058
琳	-11.3058
雇	-11.3058
淚	-11.3058
蒸	-11.3099
悶	-11.3181
忠	-11.3181
踐	-11.3181
憑	-11.3181
濕	-11.3181
析	-11.3218
叢	-11.3222
矽	-11.3223
逝	-11.3223
孟	-11.3223
挫	-11.3264
偽	-11.3264
腹	-11.3306
墓	-11.3306
猛	-11.3306
霧	-11.3306
伏	-11.3348
斑	-11.3348
憶	-11.3389
怨	-11.339
併	-11.339
幽	-11.3433
丘	-11.3433
須	-11.3474
棉	-11.3475
拓	-11.3518
豚	-11.3518
煮	-11.3561
奔	-11.3561
詹	-11.3561
恥	-11.3604
譽	-11.3604
鷹	-11.3604
勁	-11.3691
拔	-11.3691
葬	-11.3691
瀏	-11.3734
笨	-11.3734
肅	-11.3734
蝠	-11.3734
邪	-11.3734
醬	-11.3778
契	-11.3778
魅	-11.3778
怒	-11.3822
掠	-11.3822
湧	-11.3822
繼	-11.3866
奉	-11.3867
攀	-11.3867
稿	-11.3867
罩	-11.3867
蝦	-11.3867
閒	-11.3867
兼	-11.3867
瓜	-11.3867
睹	-11.3911
跌	-11.3911
郊	-11.3911
畏	-11.3956
盯	-11.3956
豆	-11.3956
蛇	-11.4
膚	-11.4045
堪	-11.4045
痕	-11.4045
胃	-11.4046
禍	-11.4091
腔	-11.4091
汽	-11.4133
霸	-11.4136
叉	-11.4182
租	-11.4182
崇	-11.4182
蓄	-11.4182
裕	-11.4182
謹	-11.4274
彼	-11.4318
溯	-11.432
騷	-11.432
髒	-11.432
懲	-11.432
憲	-11.432
烤	-11.4367
綜	-11.4367
劣	-11.4367
醇	-11.4367
砍	-11.4413
漆	-11.4413
斜	-11.4413
倖	-11.4413
吞	-11.446
狼	-11.446
召	-11.446
嘆	-11.446
鹼	-11.446
削	-11.4507
蕾	-11.4555
彷	-11.4555
吐	-11.4555
夾	-11.4555
捷	-11.4555
玉	-11.4602
寒	-11.4603
吻	-11.4603
唐	-11.465
勤	-11.465
塢	-11.465
翅	-11.465
遮	-11.465
囊	-11.4698
疲	-11.4747
宏	-11.4747
戈	-11.4747
彿	-11.4795
懶	-11.4795
掩	-11.4844
膨	-11.4844
概	-11.4876
污	-11.4893
狹	-11.4893
罹	-11.4893
逼	-11.4942
胺	-11.4942
吵	-11.4992
撥	-11.4992
浸	-11.4992
兇	-11.4992
⋯	-11.4992
臭	-11.5042
耕	-11.5042
卓	-11.5042
浴	-11.5042
鳴	-11.5042
宗	-11.5089
番	-11.5092
唸	-11.5092
屏	-11.5092
淋	-11.5142
癱	-11.5192
廷	-11.5192
拒	-11.524
擇	-11.5241
駕	-11.5243
晰	-11.5243
井	-11.5243
烹	-11.5243
樑	-11.5294
敲	-11.5294
爺	-11.5294
糞	-11.5294
暢	-11.5294
攻	-11.5344
汗	-11.5345
姓	-11.5345
酬	-11.5397
屈	-11.5501
庇	-11.5501
扯	-11.5501
籃	-11.5501
宅	-11.5553
囉	-11.5553
拘	-11.5553
挪	-11.5553
慣	-11.5605
淺	-11.5606
罷	-11.5606
竊	-11.5659
艇	-11.5659
膝	-11.5659
鋪	-11.5659
沖	-11.5712
篩	-11.5712
尬	-11.5712
紛	-11.5712
斤	-11.5765
嗨	-11.5765
磚	-11.5765
亨	-11.5765
湊	-11.5765
瘓	-11.5819
咬	-11.5819
筒	-11.5819
悔	-11.5819
慌	-11.5819
禦	-11.5819
于	-11.5873
巡	-11.5873
鑰	-11.5873
什	-11.5927
摔	-11.5928
豹	-11.5928
爵	-11.5982
裸	-11.5982
謙	-11.5982
闊	-11.5982
舌	-11.5982
祈	-11.5982
扇	-11.6037
蘿	-11.6037
#	-11.6092
扣	-11.6092
謬	-11.6092
征	-11.6092
貫	-11.6148
騰	-11.6148
娃	-11.6204
汁	-11.6204
芭	-11.6204
銅	-11.6204
潰	-11.6204
丸	-11.626
坑	-11.626
閱	-11.6315
棕	-11.6316
沈	-11.6317
蒐	-11.6317
泉	-11.6317
匿	-11.6317
寂	-11.6373
棘	-11.6373
矩	-11.6373
痺	-11.6373
艙	-11.643
鉛	-11.643
傘	-11.643
旱	-11.643
衷	-11.643
内	-11.643
披	-11.6488
+	-11.6488
瞧	-11.6488
撈	-11.6488
添	-11.6488
嗅	-11.6546
撼	-11.6546
炭	-11.6546
疏	-11.6546
毯	-11.6546
祕	-11.6604
卑	-11.6604
匙	-11.6604
踢	-11.6662
劍	-11.6662
昏	-11.6662
諧	-11.6662
肚	-11.6662
頸	-11.6662
煉	-11.6662
綿	-11.6662
鬧	-11.6721
薯	-11.6721
盆	-11.6721
椎	-11.6721
慎	-11.6721
梭	-11.678
忌	-11.678
津	-11.678
茄	-11.678
詐	-11.678
撰	-11.678
鈴	-11.684
巾	-11.684
諮	-11.684
懼	-11.6899
欠	-11.69
巫	-11.69
胰	-11.69
扔	-11.69
犬	-11.69
狄	-11.696
龜	-11.696
歇	-11.696
卷	-11.696
蔬	-11.696
们	-11.7021
碑	-11.7021
溶	-11.7021
洩	-11.7082
蝕	-11.7082
坊	-11.7082
韌	-11.7082
碟	-11.7082
陶	-11.7082
瞄	-11.7082
羽	-11.7143
嘉	-11.7205
禿	-11.7205
橘	-11.7205
墊	-11.7267
飄	-11.7267
淹	-11.7329
銳	-11.7329
宰	-11.7392
抬	-11.7392
倉	-11.7455
纏	-11.7519
榜	-11.7519
兔	-11.7519
繫	-11.7582
慨	-11.7583
壇	-11.7583
碗	-11.7583
踩	-11.7648
頌	-11.7648
这	-11.7713
滲	-11.7713
薦	-11.7778
噬	-11.7778
窟	-11.7778
臥	-11.7778
峽	-11.7844
緒	-11.7974
糕	-11.7976
君	-11.7977
訣	-11.7977
伽	-11.7977
橡	-11.7977
垮	-11.8044
誓	-11.8044
蠟	-11.8044
撕	-11.8044
匠	-11.8044
哀	-11.8044
♫	-11.8052
晃	-11.8111
寺	-11.8111
鬍	-11.8111
乙	-11.8111
吊	-11.8111
穀	-11.8111
償	-11.8111
彌	-11.8111
唯	-11.8127
【	-11.8179
】	-11.8179
漲	-11.8179
己	-11.8244
墜	-11.8248
屁	-11.8248
泊	-11.8248
飼	-11.8248
憾	-11.8248
扶	-11.8248
撫	-11.8248
砸	-11.8248
邀	-11.8315
弊	-11.8317
烷	-11.8317
駛	-11.8386
嚐	-11.8386
磷	-11.8386
勾	-11.8386
洪	-11.8386
氮	-11.8456
韋	-11.8456
吋	-11.8456
腰	-11.8527
緻	-11.8527
刪	-11.8527
炫	-11.8527
皂	-11.8527
籠	-11.8527
郡	-11.8598
闡	-11.8598
鮪	-11.8598
翔	-11.8598
矮	-11.8669
倆	-11.8669
旨	-11.8669
肖	-11.8669
燥	-11.8669
仙	-11.8741
划	-11.8741
熔	-11.8741
渦	-11.8813
抖	-11.8813
摘	-11.8813
誼	-11.8813
畜	-11.8813
賀	-11.8814
朱	-11.8886
仗	-11.8886
咒	-11.8886
蛙	-11.8886
錶	-11.8886
并	-11.8886
抹	-11.8887
溜	-11.896
伙	-11.896
咪	-11.896
糾	-11.896
捨	-11.896
劫	-11.896
嘯	-11.896
寵	-11.896
泣	-11.896
秋	-11.896
禧	-11.896
訟	-11.896
隧	-11.896
董	-11.896
冥	-11.9034
籲	-11.9034
詭	-11.9034
轟	-11.9034
頗	-11.9109
儕	-11.9109
溝	-11.9182
嘲	-11.9184
嶼	-11.9184
鹿	-11.9184
鋒	-11.9184
躁	-11.9184
訝	-11.9258
筋	-11.926
釘	-11.926
昇	-11.926
鮑	-11.926
履	-11.926
攤	-11.9336
嫁	-11.9336
穎	-11.9336
駝	-11.9336
黛	-11.9336
茨	-11.9336
傻	-11.9336
鍊	-11.9413
駐	-11.9413
漿	-11.949
罵	-11.949
窩	-11.949
í	-11.949
崔	-11.949
聘	-11.949
喘	-11.949
瀕	-11.949
乃	-11.949
蕉	-11.949
仔	-11.9568
灑	-11.9569
徙	-11.9569
雀	-11.9569
愧	-11.9569
棍	-11.9569
喉	-11.9569
夷	-11.9569
潘	-11.9569
扮	-11.9646
穌	-11.9647
蕩	-11.9647
噁	-11.9647
氛	-11.9647
柴	-11.9647
姑	-11.9727
篷	-11.9727
蔓	-11.9727
螂	-11.9727
戚	-11.9727
括	-11.9806
翁	-11.9807
蒼	-11.9807
辜	-11.9807
鴨	-11.9807
倦	-11.9807
壺	-11.9807
撿	-11.9807
迦	-11.9807
軀	-11.9887
凸	-11.9887
撲	-11.9887
窄	-11.9887
諒	-11.9969
桃	-11.9969
蓬	-11.9969
嶄	-11.9969
陋	-11.9969
腕	-11.9969
塌	-12.0051
胚	-12.0051
撤	-12.0051
瘦	-12.0051
皺	-12.0051
祂	-12.0051
骸	-12.0051
癲	-12.0133
泌	-12.0133
盔	-12.0133
浩	-12.0133
澡	-12.0217
覓	-12.0217
猿	-12.0217
纜	-12.0217
殿	-12.0217
幟	-12.0301
硫	-12.0301
顫	-12.0301
廟	-12.0301
堵	-12.0301
稚	-12.0301
釐	-12.0301
努	-12.038
挨	-12.0385
墮	-12.0385
嵌	-12.0385
伺	-12.0385
株	-12.0385
呈	-12.0408
粘	-12.0471
築	-12.0556
浦	-12.0557
喇	-12.0557
采	-12.0557
=	-12.0557
阱	-12.0557
隙	-12.0557
沼	-12.0557
拾	-12.0644
札	-12.0644
庸	-12.0644
菁	-12.0644
坎	-12.0644
脖	-12.0644
沫	-12.0644
哨	-12.0731
枯	-12.0732
啓	-12.0732
á	-12.082
妒	-12.082
薇	-12.082
菇	-12.082
濟	-12.0908
僵	-12.0909
腫	-12.0909
蔽	-12.091
鴿	-12.1
曝	-12.1
崗	-12.1
鱷	-12.1
挽	-12.1
辣	-12.1
嫩	-12.109
癇	-12.109
賄	-12.109
奢	-12.109
熬	-12.109
券	-12.109
盼	-12.109
稻	-12.1091
慕	-12.1182
惹	-12.1182
杉	-12.1182
碩	-12.1182
艦	-12.1182
槽	-12.1182
侷	-12.1182
佐	-12.1275
悠	-12.1275
刮	-12.1275
帆	-12.1275
栽	-12.1275
瓊	-12.1275
瞭	-12.1366
溪	-12.1368
敞	-12.1368
涼	-12.1368
渺	-12.1368
芽	-12.1368
喀	-12.1368
攔	-12.1368
芒	-12.1368
裹	-12.1368
函	-12.1463
搏	-12.1463
廈	-12.1463
砂	-12.1463
逗	-12.1463
燭	-12.1558
押	-12.1558
淘	-12.1558
呃	-12.1558
莖	-12.1558
姨	-12.1558
蕭	-12.1558
?	-12.1625
滯	-12.1654
茱	-12.1654
窺	-12.1654
逛	-12.1654
沾	-12.1654
澱	-12.1654
抄	-12.1751
宴	-12.1751
膏	-12.1751
擲	-12.1751
芙	-12.1849
癡	-12.1849
祭	-12.1849
酶	-12.1849
旺	-12.1849
夕	-12.1948
悄	-12.1948
弓	-12.1948
癢	-12.1948
鑑	-12.1948
駁	-12.1948
皿	-12.1948
蜻	-12.1948
瘤	-12.2048
禽	-12.2048
舍	-12.2048
个	-12.2048
墳	-12.2149
頒	-12.2149
甸	-12.2149
厄	-12.2149
柬	-12.2149
楚	-12.225
饒	-12.2251
笛	-12.2251
寡	-12.2251
扁	-12.2251
鈔	-12.2251
趾	-12.2354
萎	-12.2354
「	-12.2454
顏	-12.2455
屆	-12.2458
憫	-12.2458
紮	-12.2458
蝶	-12.2458
壘	-12.2458
甦	-12.2458
曬	-12.2458
貶	-12.2564
憤	-12.267
輝	-12.267
枚	-12.267
齣	-12.267
贖	-12.267
暈	-12.267
襯	-12.2778
緬	-12.2778
爪	-12.2778
拳	-12.2778
眉	-12.2778
衫	-12.2886
竹	-12.2886
糙	-12.2886
遣	-12.2886
銜	-12.2886
蘊	-12.2886
撇	-12.2886
蟹	-12.2996
棚	-12.2996
虧	-12.2996
恒	-12.3107
妝	-12.3107
虹	-12.3107
狠	-12.3107
檯	-12.322
蝸	-12.322
没	-12.322
繳	-12.322
啥	-12.322
恤	-12.322
僧	-12.322
寨	-12.322
肆	-12.3333
岡	-12.3333
賊	-12.3333
淫	-12.3333
袍	-12.3333
倘	-12.3333
賜	-12.3333
饑	-12.3333
欖	-12.3333
焰	-12.3448
爽	-12.3448
蘑	-12.3448
摯	-12.3565
悖	-12.3565
盈	-12.3682
堤	-12.3682
畝	-12.3682
臣	-12.3682
汰	-12.3682
侖	-12.3682
泄	-12.3682
奎	-12.3682
衆	-12.3682
嬰	-12.38
鉅	-12.3801
憎	-12.3801
穫	-12.3801
骯	-12.3801
縛	-12.3801
嚮	-12.3801
裙	-12.3801
睜	-12.3801
舟	-12.3801
鄙	-12.3922
襪	-12.3922
酮	-12.3922
崖	-12.3922
叮	-12.4044
聳	-12.4044
鳳	-12.4044
攪	-12.4044
」	-12.4095
妓	-12.4167
卜	-12.4167
塘	-12.4167
褐	-12.4167
峻	-12.4167
銘	-12.4167
溺	-12.4292
沸	-12.4292
廂	-12.4292
捍	-12.4292
ö	-12.4292
莓	-12.4292
靴	-12.4292
閣	-12.4419
烘	-12.4419
繃	-12.4419
黴	-12.4419
砰	-12.4419
稽	-12.4419
馴	-12.4419
碌	-12.4419
靶	-12.4419
妄	-12.4419
杰	-12.4547
剔	-12.4547
○	-12.4547
酪	-12.4547
姦	-12.4547
彰	-12.4547
疚	-12.4547
紗	-12.4547
藤	-12.4547
恕	-12.4677
輟	-12.4677
瑣	-12.4677
陀	-12.4677
娘	-12.4677
溢	-12.4677
睪	-12.4677
疤	-12.4677
斗	-12.4677
瓣	-12.4677
杏	-12.4808
闖	-12.4808
槳	-12.4808
捏	-12.4808
甩	-12.4808
釣	-12.4808
嫌	-12.4808
鍾	-12.4808
氦	-12.4942
蓮	-12.4942
淆	-12.4942
鎊	-12.4942
玫	-12.4942
勘	-12.4942
曆	-12.5077
頑	-12.5077
弧	-12.5077
俯	-12.5077
吼	-12.5077
茅	-12.5077
茫	-12.5077
鴻	-12.5077
嘗	-12.5175
瀉	-12.5214
擷	-12.5214
竅	-12.5214
缸	-12.5214
錫	-12.5214
栓	-12.5214
舅	-12.5214
瑕	-12.5214
痴	-12.5214
矯	-12.5214
勉	-12.5214
紡	-12.5214
馳	-12.5214
勸	-12.5353
艷	-12.5353
嗜	-12.5353
杆	-12.5353
潑	-12.5353
煞	-12.5353
鋁	-12.5353
炮	-12.5494
梨	-12.5494
鍋	-12.5494
檻	-12.5636
碧	-12.5636
卸	-12.5636
暑	-12.5636
鷲	-12.5636
萃	-12.5781
産	-12.5781
鍛	-12.5781
疹	-12.5781
籬	-12.5781
丙	-12.5781
樞	-12.5781
鞭	-12.5781
虔	-12.5781
鋸	-12.5781
琪	-12.5781
孩	-12.591
淪	-12.5928
顱	-12.5928
廓	-12.5928
匆	-12.5928
ㄧ	-12.5928
聼	-12.5928
竄	-12.5928
奠	-12.5928
椰	-12.5928
氯	-12.5928
噠	-12.5929
府	-12.6077
苗	-12.6077
瞞	-12.6078
嘔	-12.6078
侮	-12.6078
恭	-12.6078
貯	-12.6078
隕	-12.6078
斐	-12.6078
氨	-12.6229
隘	-12.6229
崙	-12.6229
叭	-12.6383
懈	-12.6383
唇	-12.6383
渾	-12.6383
淵	-12.6383
乖	-12.6383
鉤	-12.6539
俠	-12.6539
杖	-12.6539
欽	-12.6539
毅	-12.6539
煽	-12.6539
戳	-12.6539
凹	-12.6539
慟	-12.6698
熵	-12.6698
唾	-12.6698
悼	-12.6698
帥	-12.6859
斧	-12.6859
渠	-12.6859
寞	-12.6859
巔	-12.6859
椒	-12.6859
娶	-12.6859
槓	-12.6859
嘻	-12.7023
鮭	-12.7023
澆	-12.7023
眨	-12.7023
沛	-12.7023
菈	-12.7023
詛	-12.7023
鑄	-12.7023
噓	-12.7023
嚼	-12.7023
簿	-12.7023
橙	-12.719
傢	-12.719
茂	-12.719
譴	-12.719
来	-12.719
簾	-12.719
‘	-12.719
昭	-12.719
鰭	-12.719
燙	-12.719
聰	-12.7357
悉	-12.7359
嗶	-12.7359
戮	-12.7359
釀	-12.7359
ó	-12.7359
兜	-12.7359
貞	-12.7359
鑒	-12.7359
苛	-12.7359
匈	-12.736
妖	-12.7532
宇	-12.7532
乞	-12.7532
柵	-12.7532
澄	-12.7532
赴	-12.7532
懇	-12.7532
瀑	-12.7532
轄	-12.7707
侯	-12.7707
羚	-12.7707
衞	-12.7707
咖	-12.7707
孵	-12.7707
凰	-12.7707
逸	-12.7707
霜	-12.7707
为	-12.7707
倚	-12.7707
巷	-12.7707
僑	-12.7707
鈣	-12.7707
箏	-12.7886
陵	-12.7886
扛	-12.7886
蹺	-12.7886
哎	-12.7886
翠	-12.7886
萌	-12.7886
枕	-12.7886
么	-12.7886
掀	-12.7886
瓷	-12.8068
灼	-12.8068
雛	-12.8068
傭	-12.8068
撓	-12.8068
跋	-12.8068
錐	-12.8068
聾	-12.8068
梵	-12.8253
扼	-12.8253
謠	-12.8253
夸	-12.8253
渣	-12.8253
盞	-12.8253
犀	-12.8253
絨	-12.8253
熄	-12.8253
頃	-12.8253
絶	-12.8441
瑜	-12.8441
郎	-12.8441
漬	-12.8441
絞	-12.8441
汲	-12.8441
臀	-12.8441
鈾	-12.8441
歎	-12.8441
窒	-12.8441
趁	-12.8441
吶	-12.8634
轍	-12.8634
楊	-12.8634
迄	-12.8634
霄	-12.8634
嬉	-12.8634
訃	-12.8634
砲	-12.8634
拙	-12.8634
冗	-12.8634
豔	-12.8634
朋	-12.8829
誦	-12.883
咳	-12.883
斬	-12.883
仲	-12.883
壟	-12.883
瀚	-12.883
坪	-12.883
姪	-12.883
賤	-12.883
愁	-12.883
煎	-12.883
苯	-12.883
蔥	-12.883
昔	-12.903
盃	-12.903
賠	-12.903
・	-12.903
嗚	-12.903
怯	-12.903
摒	-12.903
頰	-12.903
祥	-12.903
蚌	-12.903
綽	-12.903
〉	-12.903
狸	-12.903
〈	-12.903
屑	-12.903
髖	-12.903
馮	-12.903
膩	-12.9234
徘	-12.9234
逢	-12.9234
炒	-12.9234
傅	-12.9234
朽	-12.9234
蕃	-12.9234
醣	-12.9234
俘	-12.9234
係	-12.943
姬	-12.9442
_	-12.9442
柄	-12.9442
蕊	-12.9442
毆	-12.9442
烯	-12.9442
吟	-12.9442
瞥	-12.9442
踪	-12.9442
豎	-12.9442
賢	-12.9442
遽	-12.9442
惰	-12.9442
胱	-12.9442
@	-12.9442
剎	-12.9442
悍	-12.9442
飆	-12.9442
漩	-12.9655
竿	-12.9655
煌	-12.9655
餌	-12.9655
珀	-12.9655
貘	-12.9655
鞏	-12.9655
櫥	-12.9655
牡	-12.9655
酋	-12.9872
佑	-12.9872
腥	-12.9872
壩	-12.9872
侍	-12.9872
茸	-12.9872
肘	-12.9872
呵	-12.9872
拐	-12.9872
洽	-12.9872
痊	-12.9872
癥	-12.9872
搗	-12.9872
僻	-12.9872
柳	-12.9872
錦	-12.9872
鱈	-13.0095
昧	-13.0095
緯	-13.0095
噩	-13.0095
拱	-13.0095
刃	-13.0095
擱	-13.0095
蠣	-13.0095
圭	-13.0095
瞪	-13.0322
泵	-13.0322
芥	-13.0322
晴	-13.0322
盎	-13.0322
倭	-13.0322
鬚	-13.0322
稠	-13.0322
匪	-13.0322
吱	-13.0322
瞎	-13.0322
閥	-13.0322
闢	-13.0322
鹹	-13.0322
孢	-13.0322
縣	-13.0322
踝	-13.0322
禪	-13.0322
牟	-13.0554
瀝	-13.0554
滔	-13.0554
焚	-13.0554
疆	-13.0554
曠	-13.0554
綫	-13.0554
魁	-13.0554
掏	-13.0554
暱	-13.0554
猝	-13.0554
絆	-13.0554
韻	-13.0554
体	-13.0554
迥	-13.0554
攣	-13.0792
强	-13.0793
舖	-13.0793
ç	-13.0793
è	-13.0793
窘	-13.0793
繹	-13.0793
儒	-13.0793
蜥	-13.0793
搔	-13.0793
藩	-13.0793
梁	-13.1036
肋	-13.1036
瘟	-13.1036
ã	-13.1036
瞻	-13.1036
唔	-13.1036
淑	-13.1036
狐	-13.1036
諜	-13.1036
婁	-13.1036
濱	-13.1036
簧	-13.1036
釷	-13.1036
嗝	-13.1036
澀	-13.1037
誡	-13.1037
霹	-13.1037
〇	-13.1286
顎	-13.1286
咕	-13.1286
囑	-13.1286
岔	-13.1286
燕	-13.1286
奬	-13.1286
蹦	-13.1286
喂	-13.1286
恍	-13.1286
賬	-13.1286
棺	-13.1286
蹲	-13.1286
酗	-13.1286
咎	-13.1286
趴	-13.1286
伎	-13.1286
鑿	-13.1286
蘆	-13.1287
蠶	-13.1543
彥	-13.1543
会	-13.1543
唉	-13.1543
樁	-13.1543
蟎	-13.1543
跪	-13.1543
鈍	-13.1543
涅	-13.1543
蔔	-13.1543
墟	-13.1543
蛾	-13.1806
僕	-13.1806
痙	-13.1806
范	-13.1806
蛻	-13.1806
拌	-13.1806
丑	-13.1806
逾	-13.1806
侏	-13.1806
睾	-13.1806
凳	-13.2076
訶	-13.2076
紊	-13.2076
乒	-13.2076
榴	-13.2076
綱	-13.2076
締	-13.2076
氟	-13.2076
証	-13.2076
酚	-13.2076
樸	-13.2076
鐮	-13.2076
繡	-13.2076
啪	-13.2076
够	-13.2076
慧	-13.2353
綻	-13.2354
紳	-13.2354
鋰	-13.2354
乓	-13.2354
瘡	-13.2354
屎	-13.2354
捫	-13.2354
岳	-13.2354
斃	-13.2354
澈	-13.2354
褪	-13.2354
脾	-13.2354
鏽	-13.2354
霖	-13.2354
梳	-13.2354
陡	-13.2354
匣	-13.2354
咀	-13.2354
亟	-13.2354
橇	-13.264
舔	-13.264
蔑	-13.264
〞	-13.264
凶	-13.264
銬	-13.264
勻	-13.264
渥	-13.264
葵	-13.264
嘶	-13.264
歪	-13.264
猖	-13.264
繭	-13.264
峭	-13.264
腋	-13.264
遏	-13.264
癖	-13.264
諺	-13.264
嚕	-13.2934
繆	-13.2934
噗	-13.2934
蠕	-13.2934
à	-13.2934
氾	-13.2934
螳	-13.2934
褶	-13.2934
(	-13.2934
檳	-13.2934
穹	-13.2934
芯	-13.2934
顳	-13.2934
餡	-13.2934
綢	-13.2934
諱	-13.2934
痲	-13.2934
鑲	-13.2934
翹	-13.2934
芮	-13.3237
懦	-13.3237
晉	-13.3237
槌	-13.3237
醃	-13.3237
膛	-13.3237
亭	-13.3237
曙	-13.3237
閘	-13.3237
狡	-13.3237
鄭	-13.3237
鏟	-13.3237
啡	-13.3549
芳	-13.3549
喧	-13.3549
捧	-13.3549
哉	-13.3549
脣	-13.3549
褻	-13.3549
曳	-13.3549
样	-13.3549
秤	-13.3549
漣	-13.3549
羨	-13.3549
说	-13.3549
舵	-13.3549
薛	-13.3549
时	-13.3549
鰻	-13.3872
卦	-13.3872
輿	-13.3872
輾	-13.3872
兌	-13.3872
崎	-13.3872
嶺	-13.3872
梗	-13.3872
江	-13.3872
扉	-13.3872
玄	-13.3872
轎	-13.3872
厘	-13.3872
苔	-13.3872
朔	-13.3872
敍	-13.4205
洶	-13.4205
°	-13.4205
榨	-13.4205
俏	-13.4205
揍	-13.4205
瘠	-13.4205
螈	-13.4205
傍	-13.4205
肽	-13.4205
嘎	-13.4205
溼	-13.4205
痘	-13.4205
蜷	-13.4205
蔗	-13.4205
炙	-13.455
^	-13.455
嗓	-13.455
拭	-13.455
墻	-13.455
裘	-13.455
廿	-13.455
紓	-13.455
仕	-13.455
哼	-13.455
肇	-13.455
鈦	-13.455
鉀	-13.455
錘	-13.455
剃	-13.455
鎚	-13.455
鶴	-13.455
夭	-13.455
垢	-13.455
贅	-13.455
菩	-13.455
汪	-13.455
鄂	-13.455
屢	-13.4907
灶	-13.4907
咚	-13.4907
燼	-13.4907
琢	-13.4907
鐳	-13.4907
实	-13.4907
烙	-13.4907
质	-13.4907
哄	-13.4907
蛤	-13.4907
芋	-13.4907
諦	-13.4907
蚜	-13.4907
魟	-13.4907
脅	-13.5277
婭	-13.5278
旭	-13.5278
种	-13.5278
寐	-13.5278
攏	-13.5278
暇	-13.5278
焊	-13.5278
眩	-13.5278
鞘	-13.5278
儉	-13.5278
咯	-13.5278
懾	-13.5278
晦	-13.5278
檀	-13.5278
撮	-13.5278
矇	-13.5278
腱	-13.5278
跤	-13.5278
彭	-13.5278
弭	-13.5278
棱	-13.5278
粥	-13.5278
ä	-13.5278
貢	-13.5662
憧	-13.5662
咻	-13.5662
囤	-13.5662
沐	-13.5662
綴	-13.5662
晝	-13.5662
勳	-13.5662
歹	-13.5662
燦	-13.5662
硏	-13.5662
闔	-13.5662
鏢	-13.5662
爹	-13.5662
筏	-13.5662
鍍	-13.5662
赦	-13.5662
蔭	-13.5662
莽	-13.5662
胳	-13.5662
惶	-13.6062
鼬	-13.6062
縈	-13.6062
詠	-13.6062
拷	-13.6062
尉	-13.6062
逕	-13.6062
鱗	-13.6062
\	-13.6062
攬	-13.6062
碾	-13.6062
臆	-13.6062
魄	-13.6062
衹	-13.6062
霉	-13.6062
鲁	-13.6062
甥	-13.6062
鄧	-13.6062
劈	-13.6062
筍	-13.6062
顔	-13.6062
俊	-13.6062
蛀	-13.6062
睛	-13.6478
鎂	-13.6479
膊	-13.6479
>	-13.6479
濺	-13.6479
穗	-13.6479
窪	-13.6479
臍	-13.6479
詆	-13.6479
謗	-13.6479
<	-13.6479
佬	-13.6479
怡	-13.6479
暮	-13.6479
梢	-13.6479
緝	-13.6479
臼	-13.6479
𥚃	-13.6479
ō	-13.6479
挾	-13.6479
现	-13.6479
揣	-13.6479
御	-13.6479
鞍	-13.6479
譚	-13.6479
凋	-13.6479
墾	-13.6479
ü	-13.6479
瘀	-13.6914
卒	-13.6914
鈉	-13.6914
齋	-13.6914
憋	-13.6914
嚥	-13.6914
惕	-13.6914
掰	-13.6914
寇	-13.6914
畸	-13.6914
礫	-13.6914
葫	-13.6914
靡	-13.6914
啞	-13.6914
窯	-13.6914
决	-13.6914
卿	-13.6914
捆	-13.6914
誨	-13.6914
踵	-13.6914
魏	-13.6914
嘟	-13.6914
蹣	-13.6914
螫	-13.7368
稜	-13.7368
濤	-13.7368
茉	-13.7368
邱	-13.7368
鋅	-13.7368
劉	-13.7368
砌	-13.7368
囂	-13.7368
眶	-13.7368
薑	-13.7368
别	-13.7368
驢	-13.7368
帖	-13.7368
睦	-13.7368
扳	-13.7368
欸	-13.7368
勿	-13.7368
炬	-13.7368
軼	-13.7368
暨	-13.7368
胜	-13.7368
袒	-13.7368
醯	-13.7368
奥	-13.7368
蕈	-13.7368
釦	-13.7368
抒	-13.7368
簸	-13.7368
云	-13.7844
咆	-13.7844
唷	-13.7844
慚	-13.7844
眺	-13.7844
辰	-13.7844
膳	-13.7845
豁	-13.7845
拴	-13.7845
昌	-13.7845
纂	-13.7845
蟾	-13.7845
蹄	-13.7845
徽	-13.7845
穢	-13.7845
拂	-13.7845
揉	-13.7845
鷗	-13.7845
蜿	-13.7845
蜒	-13.7845
剷	-13.8344
婉	-13.8344
怠	-13.8344
啜	-13.8344
寢	-13.8344
摻	-13.8344
睿	-13.8344
簷	-13.8344
维	-13.8344
亢	-13.8344
峙	-13.8344
殯	-13.8344
⁄	-13.8344
喲	-13.8344
嬌	-13.8344
㚈	-13.8345
遼	-13.8345
黒	-13.8345
嗒	-13.8345
荼	-13.8345
蛆	-13.8345
樺	-13.8345
錮	-13.8345
嵗	-13.8345
间	-13.8345
熨	-13.8345
疽	-13.8345
琉	-13.8345
硝	-13.8345
蝨	-13.8871
●	-13.8871
跛	-13.8871
啄	-13.8871
幀	-13.8871
统	-13.8871
过	-13.8871
桅	-13.8871
氈	-13.8871
遂	-13.8871
嘩	-13.8871
屹	-13.8871
篤	-13.8871
喃	-13.8871
喙	-13.8871
嘍	-13.8871
敷	-13.8871
醛	-13.8871
肛	-13.8871
褓	-13.8871
酯	-13.8871
啃	-13.8871
嗑	-13.8871
毁	-13.8871
还	-13.8871
×	-13.8871
侃	-13.8871
冕	-13.8871
僥	-13.8871
耽	-13.8871
酌	-13.8871
蘚	-13.8871
*	-13.8871
妲	-13.8871
恙	-13.8871
镜	-13.8871
櫻	-13.8871
黯	-13.8871
蠍	-13.9426
几	-13.9426
忒	-13.9426
叨	-13.9426
翩	-13.9426
学	-13.9426
摹	-13.9426
柚	-13.9426
瀆	-13.9426
眷	-13.9426
桂	-13.9426
犁	-13.9426
髏	-13.9426
弈	-13.9426
鉗	-13.9426
斂	-13.9426
聶	-13.9426
骷	-13.9426
迂	-13.9426
宛	-13.9426
猥	-13.9426
縷	-13.9426
狙	-13.9426
虞	-13.9426
榖	-13.9426
菊	-14.0015
孜	-14.0015
鼎	-14.0015
冀	-14.0015
琥	-14.0015
醋	-14.0015
鰓	-14.0015
涕	-14.0015
緹	-14.0015
蒲	-14.0015
耆	-14.0015
遨	-14.0015
湍	-14.0015
絃	-14.0015
絛	-14.0015
攫	-14.0015
旬	-14.0015
弔	-14.0015
蚤	-14.0015
远	-14.0015
从	-14.064
β	-14.064
吳	-14.064
柢	-14.064
幢	-14.064
輒	-14.064
揪	-14.064
擡	-14.064
胥	-14.064
腓	-14.064
臻	-14.064
ā	-14.064
儂	-14.064
咽	-14.064
孝	-14.064
徐	-14.064
瘁	-14.064
粟	-14.064
綺	-14.064
鯛	-14.064
α	-14.064
发	-14.064
唬	-14.064
楣	-14.064
銹	-14.064
见	-14.064
迭	-14.064
酥	-14.064
蔚	-14.064
蜢	-14.064
籽	-14.064
絢	-14.064
伶	-14.1306
麋	-14.1306
宙	-14.1306
变	-14.1306
淩	-14.1306
晾	-14.1306
吾	-14.1306
俚	-14.1306
潟	-14.1306
簇	-14.1306
耙	-14.1306
娓	-14.1306
醚	-14.1306
惦	-14.1306
昰	-14.1306
嘖	-14.1306
楷	-14.1306
横	-14.1306
鉭	-14.1306
嚷	-14.1306
媛	-14.1306
嫖	-14.1306
矢	-14.1306
羣	-14.1306
羹	-14.1306
苟	-14.1306
錨	-14.1306
麩	-14.1306
动	-14.1306
祟	-14.1306
辮	-14.1306
鬣	-14.1306
吮	-14.1306
咧	-14.1306
枉	-14.1306
諳	-14.1306
杭	-14.1306
淌	-14.1306
滌	-14.1306
孰	-14.1306
抛	-14.1306
坍	-14.1306
寮	-14.1306
楔	-14.1306
頹	-14.1306
据	-14.1306
焉	-14.202
硼	-14.202
熠	-14.2021
醺	-14.2021
寥	-14.2021
燉	-14.2021
佣	-14.2021
篡	-14.2021
细	-14.2021
鐸	-14.2021
咔	-14.2021
宫	-14.2021
喋	-14.2021
嚎	-14.2021
淒	-14.2021
ù	-14.2021
π	-14.2021
啼	-14.2021
嗆	-14.2021
瑙	-14.2021
鳩	-14.2021
殃	-14.2021
纳	-14.2021
遛	-14.2021
竇	-14.2021
閹	-14.2021
冤	-14.2021
处	-14.2021
馨	-14.2021
迸	-14.2021
羈	-14.2021
詫	-14.279
验	-14.279
懊	-14.279
帷	-14.279
砷	-14.279
鈳	-14.279
媚	-14.279
惟	-14.279
窖	-14.279
吁	-14.279
惚	-14.279
摟	-14.279
豈	-14.279
闌	-14.279
黍	-14.279
ø	-14.279
忿	-14.279
斟	-14.279
琦	-14.279
蜇	-14.279
厥	-14.279
蒜	-14.279
蜀	-14.279
覷	-14.279
垣	-14.279
錠	-14.279
却	-14.279
凈	-14.279
箔	-14.279
奸	-14.279
蛹	-14.279
讲	-14.279
给	-14.279
蔻	-14.279
题	-14.279
曦	-14.279
畔	-14.279
沁	-14.3623
磺	-14.3623
扒	-14.3623
脚	-14.3623
朦	-14.3623
冶	-14.3623
擧	-14.3623
晤	-14.3623
薰	-14.3623
霓	-14.3623
儼	-14.3623
夯	-14.3623
遁	-14.3623
丶	-14.3623
愕	-14.3623
磯	-14.3623
緘	-14.3623
宕	-14.3623
ú	-14.3623
对	-14.3623
撩	-14.3623
殞	-14.3623
毗	-14.3623
气	-14.3623
羔	-14.3623
悴	-14.3623
蝟	-14.3623
卅	-14.3623
襟	-14.3623
遑	-14.3623
噱	-14.3623
泯	-14.3623
燴	-14.3623
轆	-14.3623
侄	-14.3623
璨	-14.3623
约	-14.3623
躬	-14.3623
揀	-14.3623
熾	-14.3623
叩	-14.4532
胼	-14.4532
掐	-14.4532
烴	-14.4532
甫	-14.4532
搆	-14.4532
緞	-14.4532
咸	-14.4532
迹	-14.4532
关	-14.4532
娼	-14.4532
秦	-14.4532
繚	-14.4532
®	-14.4532
万	-14.4532
刹	-14.4532
滄	-14.4532
膿	-14.4532
隼	-14.4532
祇	-14.4532
ë	-14.4532
汞	-14.4532
絮	-14.4532
蒿	-14.4532
鑣	-14.4532
鞦	-14.4532
韆	-14.4532
ô	-14.4532
扈	-14.4532
訕	-14.4532
蹩	-14.4532
瓢	-14.4532
菱	-14.4532
藐	-14.4532
蹊	-14.4532
佇	-14.4532
濁	-14.4532
炊	-14.4532
汚	-14.4532
蔡	-14.4532
鉑	-14.4532
閲	-14.4532
頜	-14.4532
宵	-14.4532
濛	-14.4532
遐	-14.4532
甄	-14.4532
芹	-14.4532
尔	-14.4532
嚙	-14.4532
数	-14.4532
;	-14.5209
憚	-14.5532
图	-14.5532
淤	-14.5532
荊	-14.5532
胝	-14.5532
©	-14.5532
咐	-14.5532
疣	-14.5532
箋	-14.5532
剋	-14.5532
叟	-14.5532
壅	-14.5532
瑯	-14.5532
静	-14.5532
俐	-14.5532
戾	-14.5532
擘	-14.5532
拗	-14.5532
捅	-14.5532
殷	-14.5532
ê	-14.5532
ī	-14.5532
勺	-14.5532
揹	-14.5532
瞠	-14.5532
翡	-14.5532
阳	-14.5532
餬	-14.5532
吠	-14.5532
嘰	-14.5532
搓	-14.5532
綑	-14.5532
兀	-14.5532
啾	-14.5532
妃	-14.5532
舶	-14.5532
郭	-14.5532
駡	-14.5532
啵	-14.5532
殉	-14.5532
瀾	-14.5532
菠	-14.5532
蛭	-14.5532
螨	-14.5532
轨	-14.5532
进	-14.5532
筷	-14.5532
璀	-14.5532
痣	-14.5532
臬	-14.5532
缩	-14.5532
饉	-14.6643
廝	-14.6643
樽	-14.6643
离	-14.6643
拽	-14.6643
腮	-14.6643
鱒	-14.6643
幌	-14.6643
齦	-14.6643
燻	-14.6643
两	-14.6643
攢	-14.6643
殻	-14.6643
軒	-14.6643
哽	-14.6643
当	-14.6643
撬	-14.6643
熙	-14.6643
贓	-14.6643
饗	-14.6643
剥	-14.6643
翌	-14.6643
霎	-14.6643
咿	-14.6643
盹	-14.6643
脱	-14.6643
膺	-14.6643
冉	-14.6643
潦	-14.6643
逞	-14.6643
澎	-14.6643
装	-14.6643
踰	-14.6643
运	-14.6643
鈎	-14.6643
兰	-14.6643
结	-14.6643
滙	-14.6643
藜	-14.6643
〝	-14.6643
压	-14.6643
亙	-14.6643
榻	-14.6643
汶	-14.6645
睏	-14.7893
獺	-14.7893
拚	-14.7893
圃	-14.7893
拮	-14.7893
熒	-14.7893
儸	-14.7893
极	-14.7893
δ	-14.7893
孚	-14.7893
孑	-14.7893
孳	-14.7893
妞	-14.7893
将	-14.7893
裴	-14.7893
丫	-14.7893
啕	-14.7893
温	-14.7893
腑	-14.7893
邸	-14.7893
银	-14.7893
ì	-14.7893
攘	-14.7893
敎	-14.7893
榭	-14.7893
瞇	-14.7893
蔣	-14.7893
譏	-14.7893
东	-14.7893
呐	-14.7893
棗	-14.7893
糗	-14.7893
鈷	-14.7893
鎳	-14.7893
鷄	-14.7893
吝	-14.7893
岱	-14.7893
憩	-14.7893
璐	-14.7893
矣	-14.7893
祢	-14.7893
禾	-14.7893
呦	-14.7893
呲	-14.7893
幡	-14.7893
庶	-14.7893
戊	-14.7893
踮	-14.7893
恣	-14.7893
涓	-14.7893
证	-14.7893
鐐	-14.7893
国	-14.7893
徴	-14.7893
橈	-14.7893
襄	-14.7893
噶	-14.7893
玲	-14.7893
曰	-14.7893
逹	-14.7893
诉	-14.7893
喳	-14.7893
甾	-14.7893
减	-14.7893
问	-14.7893
磐	-14.7893
獾	-14.7894
紹	-14.9321
余	-14.9322
袤	-14.9322
经	-14.9322
剽	-14.9322
囓	-14.9322
壹	-14.9322
颼	-14.9322
綵	-14.9322
滕	-14.9322
红	-14.9322
蝎	-14.9322
螯	-14.9322
瑩	-14.9322
睬	-14.9322
嗦	-14.9322
誣	-14.9322
劵	-14.9322
彬	-14.9322
愿	-14.9322
慵	-14.9322
涌	-14.9322
羥	-14.9322
捎	-14.9322
无	-14.9322
痠	-14.9322
稼	-14.9322
訢	-14.9322
鷸	-14.9322
况	-14.9322
癬	-14.9322
仟	-14.9322
咦	-14.9322
愜	-14.9322
摀	-14.9322
耘	-14.9322
蜚	-14.9322
袓	-14.9322
詰	-14.9322
銻	-14.9322
麟	-14.9322
叠	-14.9322
慄	-14.9322
暉	-14.9322
罌	-14.9322
蕨	-14.9322
邃	-14.9322
层	-14.9322
羯	-14.9322
茵	-14.9322
呂	-14.9322
崑	-14.9322
呱	-14.9322
噎	-14.9322
寻	-14.9322
怦	-14.9322
毎	-14.9322
褸	-14.9322
襤	-14.9322
囘	-14.9322
弛	-14.9322
犛	-14.9322
芻	-14.9322
叼	-14.9322
让	-14.9322
餃	-14.9322
湃	-14.9322
认	-14.9322
葦	-14.9322
嫂	-14.9322
懵	-14.9322
祐	-14.9322
鈽	-14.9322
釉	-15.0988
捱	-15.0988
鎘	-15.0988
م	-15.0988
单	-15.0988
孓	-15.0988
摞	-15.0988
话	-15.0988
鐲	-15.0988
鵰	-15.0988
颳	-15.0988
媳	-15.0988
忑	-15.0988
竣	-15.0989
諉	-15.0989
叙	-15.0989
嵴	-15.0989
旳	-15.0989
磗	-15.0989
胭	-15.0989
蓉	-15.0989
蟒	-15.0989
髂	-15.0989
亚	-15.0989
噥	-15.0989
宝	-15.0989
掂	-15.0989
椿	-15.0989
祸	-15.0989
稟	-15.0989
莢	-15.0989
蜈	-15.0989
该	-15.0989
踉	-15.0989
廄	-15.0989
倣	-15.0989
偎	-15.0989
坨	-15.0989
坷	-15.0989
孿	-15.0989
彫	-15.0989
樵	-15.0989
踹	-15.0989
难	-15.0989
騖	-15.0989
鮫	-15.0989
ي	-15.0989
唵	-15.0989
战	-15.0989
点	-15.0989
粱	-15.0989
苜	-15.0989
蓿	-15.0989
蚣	-15.0989
蛔	-15.0989
蟬	-15.0989
论	-15.0989
费	-15.0989
蹌	-15.0989
遢	-15.0989
靛	-15.0989
靨	-15.0989
鷈	-15.0989
鷿	-15.0989
â	-15.0989
厨	-15.0989
帚	-15.0989
氚	-15.0989
状	-15.0989
琵	-15.0989
腴	-15.0989
键	-15.0989
佯	-15.0989
囿	-15.0989
嗣	-15.0989
懨	-15.0989
擄	-15.0989
査	-15.0989
玷	-15.0989
睽	-15.0989
謨	-15.0989
释	-15.0989
噹	-15.0989
幔	-15.0989
开	-15.0989
擒	-15.0989
敝	-15.0989
观	-15.0989
詡	-15.0989
貂	-15.0989
蹭	-15.0989
輓	-15.0989
邋	-15.0989
鱸	-15.0989
鴕	-15.0989
鵑	-15.0989
衪	-15.0989
嫻	-15.0989
嵐	-15.0989
淖	-15.0989
碴	-15.0989
祿	-15.0989
赭	-15.0989
鉻	-15.0989
崽	-15.0989
斕	-15.0989
訇	-15.0989
卉	-15.0989
缽	-15.0989
鋤	-15.0989
鹵	-15.0989
黄	-15.0989
ل	-15.0989
埸	-15.0989
蜊	-15.0989
鯖	-15.0989
呸	-15.0989
喵	-15.0989
终	-15.0989
屌	-15.0989
卯	-15.0989
复	-15.0989
愣	-15.0989
鼴	-15.0989
閑	-15.0989
张	-15.2988
试	-15.2988
与	-15.2988
积	-15.2988
鎢	-15.2988
区	-15.2988
駿	-15.2988
竺	-15.2988
组	-15.2988
坤	-15.2988
砧	-15.2988
莞	-15.2988
	-15.2988
忐	-15.2988
涂	-15.2988
勛	-15.2988
唑	-15.2988
婿	-15.2988
斡	-15.2988
枱	-15.2988
栗	-15.2988
楓	-15.2988
歴	-15.2988
祼	-15.2988
酣	-15.2988
酩	-15.2988
瞅	-15.2989
皈	-15.2989
磕	-15.2989
隅	-15.2989
麝	-15.2989
ē	-15.2989
槃	-15.2989
应	-15.2989
恬	-15.2989
惺	-15.2989
戎	-15.2989
璜	-15.2989
甕	-15.2989
疸	-15.2989
稈	-15.2989
韁	-15.2989
须	-15.2989
鬃	-15.2989
兹	-15.2989
咄	-15.2989
唆	-15.2989
嚒	-15.2989
嬸	-15.2989
柑	-15.2989
潜	-15.2989
葷	-15.2989
适	-15.2989
鏘	-15.2989
櫛	-15.2989
载	-15.2989
刁	-15.2989
吩	-15.2989
嘀	-15.2989
塚	-15.2989
媾	-15.2989
悸	-15.2989
曹	-15.2989
榕	-15.2989
氪	-15.2989
测	-15.2989
燎	-15.2989
称	-15.2989
窿	-15.2989
謅	-15.2989
谢	-15.2989
蹼	-15.2989
鑚	-15.2989
鑼	-15.2989
陛	-15.2989
鱖	-15.2989
佷	-15.2989
倔	-15.2989
咋	-15.2989
带	-15.2989
昴	-15.2989
杓	-15.2989
榔	-15.2989
粕	-15.2989
脛	-15.2989
舐	-15.2989
鈈	-15.2989
鼾	-15.2989
稔	-15.2989
£	-15.2989
ω	-15.2989
′	-15.2989
凜	-15.2989
墉	-15.2989
廬	-15.2989
樟	-15.2989
氡	-15.2989
浣	-15.2989
湮	-15.2989
獠	-15.2989
祀	-15.2989
胯	-15.2989
蕙	-15.2989
褥	-15.2989
▪	-15.2989
仅	-15.2989
嚓	-15.2989
弩	-15.2989
揶	-15.2989
擰	-15.2989
涎	-15.2989
瓏	-15.2989
纽	-15.2989
霆	-15.2989
简	-15.2989
达	-15.2989
郁	-15.2989
銫	-15.2989
餿	-15.2989
騁	-15.2989
岬	-15.2989
揄	-15.2989
满	-15.2989
鈞	-15.2989
騾	-15.2989
屯	-15.2989
岑	-15.2989
椘	-15.2989
许	-15.2989
¥	-15.2989
幗	-15.2989
户	-15.2989
桔	-15.2989
棧	-15.2989
亳	-15.2989
寳	-15.2989
涇	-15.2989
濬	-15.2989
躡	-15.2989
帛	-15.2989
匍	-15.2989
匐	-15.2989
瘸	-15.5488
哢	-15.5488
围	-15.5488
嗖	-15.5488
س	-15.5488
梆	-15.5488
鹅	-15.5488
冪	-15.5488
嫺	-15.5488
壆	-15.5488
确	-15.5488
苞	-15.5488
剁	-15.5488
藴	-15.5488
鎗	-15.5488
嬴	-15.5488
沓	-15.5488
糢	-15.5488
线	-15.5488
譎	-15.5488
銲	-15.5488
鋨	-15.5488
鋯	-15.5488
请	-15.5488
响	-15.5488
怵	-15.5488
糜	-15.5488
叱	-15.5489
吏	-15.5489
喷	-15.5489
搧	-15.5489
淬	-15.5489
牀	-15.5489
痂	-15.5489
绕	-15.5489
续	-15.5489
节	-15.5489
萍	-15.5489
覬	-15.5489
鉚	-15.5489
顿	-15.5489
娣	-15.5489
‬	-15.5489
呤	-15.5489
宋	-15.5489
岁	-15.5489
搥	-15.5489
梧	-15.5489
潺	-15.5489
熏	-15.5489
犠	-15.5489
盂	-15.5489
蚩	-15.5489
螽	-15.5489
蠱	-15.5489
謐	-15.5489
诺	-15.5489
赢	-15.5489
踞	-15.5489
鎵	-15.5489
长	-15.5489
鳶	-15.5489
匕	-15.5489
萨	-15.5489
`	-15.5489
ع	-15.5489
佻	-15.5489
倏	-15.5489
僮	-15.5489
儿	-15.5489
咩	-15.5489
啖	-15.5489
噘	-15.5489
尹	-15.5489
巒	-15.5489
巖	-15.5489
彤	-15.5489
悽	-15.5489
愫	-15.5489
攆	-15.5489
杳	-15.5489
浬	-15.5489
猫	-15.5489
獃	-15.5489
痰	-15.5489
痾	-15.5489
碘	-15.5489
礬	-15.5489
粑	-15.5489
罗	-15.5489
耦	-15.5489
舆	-15.5489
苺	-15.5489
茹	-15.5489
蒞	-15.5489
誒	-15.5489
謔	-15.5489
譁	-15.5489
蹙	-15.5489
较	-15.5489
酊	-15.5489
銑	-15.5489
鎝	-15.5489
閂	-15.5489
雾	-15.5489
靚	-15.5489
鱘	-15.5489
黜	-15.5489
龔	-15.5489
跺	-15.5489
錳	-15.5489
ˊ	-15.5489
噤	-15.5489
圣	-15.5489
嫚	-15.5489
峨	-15.5489
怀	-15.5489
歿	-15.5489
氘	-15.5489
燧	-15.5489
皙	-15.5489
穏	-15.5489
蝿	-15.5489
襁	-15.5489
踫	-15.5489
轤	-15.5489
銥	-15.5489
鵟	-15.5489
刋	-15.5489
块	-15.5489
撙	-15.5489
氰	-15.5489
盘	-15.5489
緃	-15.5489
蹬	-15.5489
迢	-15.5489
鐡	-15.5489
頤	-15.5489
领	-15.5489
髪	-15.5489
軋	-15.5489
捶	-15.5489
隷	-15.5489
汝	-15.5489
茜	-15.5489
顴	-15.5489
嗷	-15.5489
祗	-15.5489
跩	-15.5489
颗	-15.5489
爱	-15.5489
贗	-15.5489
跃	-15.5489
帮	-15.5489
玆	-15.5489
祆	-15.5489
羡	-15.5489
换	-15.5489
烊	-15.5489
犢	-15.5489
龕	-15.5489
戛	-15.5489
绍	-15.5489
澹	-15.5489
粼	-15.5493
!	-15.8501
蕯	-15.8821
盗	-15.8821
环	-15.8821
笙	-15.8822
冲	-15.8822
€	-15.8822
侧	-15.8822
沱	-15.8822
о	-15.8822
异	-15.8822
舛	-15.8822
嫵	-15.8822
裳	-15.8822
随	-15.8822
ˋ	-15.8822
渝	-15.8822
璧	-15.8822
籮	-15.8822
编	-15.8822
裱	-15.8822
訛	-15.8822
计	-15.8822
輊	-15.8822
鎧	-15.8822
靭	-15.8822
廸	-15.8822
滚	-15.8822
尽	-15.8822
	-15.8822
剌	-15.8822
厮	-15.8822
吭	-15.8822
囧	-15.8822
圴	-15.8822
墩	-15.8822
机	-15.8822
杠	-15.8822
柩	-15.8822
燬	-15.8822
綹	-15.8822
继	-15.8822
覦	-15.8822
訥	-15.8822
釜	-15.8822
銨	-15.8822
鍰	-15.8822
鶩	-15.8822
¿	-15.8822
抺	-15.8822
ㄡ	-15.8822
嗇	-15.8822
头	-15.8822
婀	-15.8822
拄	-15.8822
桎	-15.8822
獷	-15.8822
珉	-15.8822
箍	-15.8822
纔	-15.8822
腆	-15.8822
蕁	-15.8822
薔	-15.8822
鏗	-15.8822
项	-15.8822
鱔	-15.8822
ʾ	-15.8822
婴	-15.8822
婷	-15.8822
弒	-15.8822
鋌	-15.8822
髯	-15.8822
æ	-15.8822
ð	-15.8822
τ	-15.8822
в	-15.8822
ы	-15.8822
ㄠ	-15.8822
㖿	-15.8822
争	-15.8822
劊	-15.8822
吗	-15.8822
唏	-15.8822
嘭	-15.8822
堿	-15.8822
壬	-15.8822
奚	-15.8822
孱	-15.8822
屣	-15.8822
巍	-15.8822
帑	-15.8822
帧	-15.8822
掮	-15.8822
栿	-15.8822
桁	-15.8822
梏	-15.8822
榷	-15.8822
残	-15.8822
沬	-15.8822
渙	-15.8822
潸	-15.8822
灯	-15.8822
烽	-15.8822
燿	-15.8822
狽	-15.8822
猬	-15.8822
獼	-15.8822
璞	-15.8822
町	-15.8822
矜	-15.8822
矫	-15.8822
砥	-15.8822
箂	-15.8822
箝	-15.8822
类	-15.8822
紜	-15.8822
絀	-15.8822
缓	-15.8822
罈	-15.8822
罝	-15.8822
莠	-15.8822
袐	-15.8822
謄	-15.8822
賑	-15.8822
赚	-15.8822
鈹	-15.8822
録	-15.8822
鍁	-15.8822
鍥	-15.8822
隠	-15.8822
隣	-15.8822
鯽	-15.8822
鱂	-15.8822
鵲	-15.8822
鶯	-15.8822
鷺	-15.8822
麴	-15.8822
仆	-15.8822
僞	-15.8822
惋	-15.8822
榚	-15.8822
氬	-15.8822
籟	-15.8822
紕	-15.8822
莱	-15.8822
‭	-15.8822
匾	-15.8822
壑	-15.8822
崁	-15.8822
徧	-15.8822
搾	-15.8822
斋	-15.8822
漾	-15.8822
皰	-15.8822
秃	-15.8822
罔	-15.8822
蚕	-15.8822
褒	-15.8822
规	-15.8822
酐	-15.8822
鈀	-15.8822
樍	-15.8822
瀟	-15.8822
产	-15.8822
众	-15.8822
兴	-15.8822
参	-15.8822
彪	-15.8822
恫	-15.8822
搪	-15.8822
暄	-15.8822
檜	-15.8822
画	-15.8822
癸	-15.8822
眀	-15.8822
閨	-15.8822
雯	-15.8822
饞	-15.8822
鰲	-15.8822
鲔	-15.8822
孽	-15.8822
瘴	-15.8822
蹉	-15.8822
驍	-15.8822
¡	-15.8822
剧	-15.8822
孀	-15.8822
携	-15.8822
痿	-15.8822
盥	-15.8822
窕	-15.8822
笞	-15.8822
艮	-15.8822
跎	-15.8822
踨	-15.8822
飞	-15.8822
鴯	-15.8822
鶓	-15.8822
麓	-15.8822
鼩	-15.8822
广	-15.8822
鯷	-15.8822
窈	-15.8822
筑	-15.8822
舷	-15.8822
漱	-15.8822
癆	-15.8822
蛉	-15.8822
譙	-15.8822
涷	-15.8822
记	-15.8823
眸	-15.8823
紈	-16.3821
飴	-16.3821
詣	-16.3821
苑	-16.3821
鉆	-16.3821
σ	-16.3822
ك	-16.3822
ن	-16.3822
啉	-16.3822
槁	-16.3822
滂	-16.3822
针	-16.3822
餽	-16.3822
氂	-16.3822
∙	-16.3822
厠	-16.3822
吒	-16.3822
啶	-16.3822
圑	-16.3822
妾	-16.3822
戯	-16.3822
桉	-16.3822
痤	-16.3822
筐	-16.3822
筛	-16.3822
缐	-16.3822
缚	-16.3822
訐	-16.3822
凯	-16.3822
忤	-16.3822
扙	-16.3822
籓	-16.3822
悵	-16.3822
	-16.3822
ط	-16.3822
र	-16.3822
्	-16.3822
傌	-16.3822
傚	-16.3822
刨	-16.3822
吖	-16.3822
囗	-16.3822
奖	-16.3822
妍	-16.3822
姚	-16.3822
拎	-16.3822
曽	-16.3822
欧	-16.3822
焗	-16.3822
猪	-16.3822
珂	-16.3822
硅	-16.3822
糠	-16.3822
绝	-16.3822
缝	-16.3822
膾	-16.3822
芘	-16.3822
褔	-16.3822
訌	-16.3822
赖	-16.3822
辟	-16.3822
边	-16.3822
酰	-16.3822
闗	-16.3822
鲜	-16.3822
麾	-16.3822
̀	-16.3822
د	-16.3822
ه	-16.3822
و	-16.3822
ㄟ	-16.3822
亲	-16.3822
囔	-16.3822
嫰	-16.3822
掣	-16.3822
昵	-16.3822
柺	-16.3822
槐	-16.3822
渐	-16.3822
溴	-16.3822
瑋	-16.3822
甯	-16.3822
秏	-16.3822
竽	-16.3822
萋	-16.3822
袞	-16.3822
诏	-16.3822
鉸	-16.3822
靦	-16.3822
鴇	-16.3822
鵐	-16.3822
奐	-16.3822
寛	-16.3822
怔	-16.3822
杵	-16.3822
歛	-16.3822
聴	-16.3822
韃	-16.3822
顺	-16.3822
ò	-16.3822
ć	-16.3822
ı	-16.3822
š	-16.3822
м	-16.3822
ص	-16.3822
प	-16.3822
म	-16.3822
े	-16.3822
ḥ	-16.3822
ẹ	-16.3822
ọ	-16.3822
∇	-16.3822
⋅	-16.3822
♯	-16.3822
き	-16.3822
の	-16.3822
れ	-16.3822
ㄅ	-16.3822
ㄌ	-16.3822
ㄎ	-16.3822
丢	-16.3822
佗	-16.3822
佘	-16.3822
俟	-16.3822
偌	-16.3822
儍	-16.3822
党	-16.3822
养	-16.3822
冽	-16.3822
刈	-16.3822
卍	-16.3822
厰	-16.3822
吓	-16.3822
员	-16.3822
喏	-16.3822
嚢	-16.3822
场	-16.3822
塲	-16.3822
増	-16.3822
妁	-16.3822
寰	-16.3822
导	-16.3822
岀	-16.3822
峡	-16.3822
徳	-16.3822
态	-16.3822
悻	-16.3822
担	-16.3822
挂	-16.3822
挐	-16.3822
摰	-16.3822
擂	-16.3822
擕	-16.3822
擤	-16.3822
断	-16.3822
显	-16.3822
晩	-16.3822
晷	-16.3822
暹	-16.3822
曜	-16.3822
枪	-16.3822
柿	-16.3822
梠	-16.3822
楦	-16.3822
様	-16.3822
樊	-16.3822
歩	-16.3822
歳	-16.3822
殄	-16.3822
氙	-16.3822
泅	-16.3822
淂	-16.3822
淮	-16.3822
渤	-16.3822
瀨	-16.3822
煲	-16.3822
燄	-16.3822
犰	-16.3822
瑁	-16.3822
电	-16.3822
疝	-16.3822
疥	-16.3822
痼	-16.3822
瘻	-16.3822
矞	-16.3822
碁	-16.3822
糅	-16.3822
緲	-16.3822
縶	-16.3822
縹	-16.3822
纍	-16.3822
纸	-16.3822
纹	-16.3822
罂	-16.3822
羧	-16.3822
羸	-16.3822
耿	-16.3822
联	-16.3822
脢	-16.3822
臊	-16.3822
舀	-16.3822
莾	-16.3822
菡	-16.3822
葩	-16.3822
蓝	-16.3822
薈	-16.3822
藪	-16.3822
蚵	-16.3822
蚺	-16.3822
蜉	-16.3822
蝣	-16.3822
裇	-16.3822
褺	-16.3822
襞	-16.3822
覲	-16.3822
觴	-16.3822
諄	-16.3822
諢	-16.3822
识	-16.3822
豺	-16.3822
賅	-16.3822
负	-16.3822
赛	-16.3822
踽	-16.3822
蹓	-16.3822
躂	-16.3822
躉	-16.3822
躋	-16.3822
躥	-16.3822
输	-16.3822
釙	-16.3822
鎬	-16.3822
鐧	-16.3822
関	-16.3822
门	-16.3822
雋	-16.3822
韜	-16.3822
頦	-16.3822
页	-16.3822
饌	-16.3822
鶇	-16.3822
鶥	-16.3822
鸛	-16.3822
鹰	-16.3822
ǔ	-16.3822
惴	-16.3822
鯁	-16.3822
齙	-16.3822
γ	-16.3822
亿	-16.3822
嶽	-16.3822
徨	-16.3822
怙	-16.3822
犒	-16.3822
狳	-16.3822
玳	-16.3822
琶	-16.3822
痍	-16.3822
癟	-16.3822
硒	-16.3822
耹	-16.3822
臃	-16.3822
葱	-16.3822
虽	-16.3822
賁	-16.3822
赞	-16.3822
轂	-16.3822
饕	-16.3822
馥	-16.3822
駒	-16.3822
鵜	-16.3822
鶘	-16.3822
兢	-16.3822
煦	-16.3822
黠	-16.3822
−	-16.3822
伕	-16.3822
倂	-16.3822
卧	-16.3822
咂	-16.3822
宽	-16.3822
师	-16.3822
惯	-16.3822
戕	-16.3822
擯	-16.3822
晒	-16.3822
枰	-16.3822
欢	-16.3822
氖	-16.3822
洐	-16.3822
濳	-16.3822
瘾	-16.3822
眇	-16.3822
碉	-16.3822
稳	-16.3822
窥	-16.3822
级	-16.3822
胛	-16.3822
荀	-16.3822
螅	-16.3822
褫	-16.3822
资	-16.3822
軛	-16.3822
鍺	-16.3822
閔	-16.3822
阪	-16.3822
预	-16.3822
饈	-16.3822
髋	-16.3822
髻	-16.3822
鰺	-16.3822
齲	-16.3822
啁	-16.3822
憨	-16.3822
→	-16.3822
扺	-16.3822
朶	-16.3822
杂	-16.3822
烱	-16.3822
码	-16.3822
鬨	-16.3822
{	-16.3822
}	-16.3822
僈	-16.3822
葺	-16.3822
μ	-16.3822
ة	-16.3822
转	-16.3822
鯰	-16.3822
黽	-16.3822
赧	-16.3822
总	-17.3524
弹	-17.3525
ğ	-17.3526
î	-17.3527
娌	-17.3528
嘌	-17.3529
渭	-17.353
่	-17.3531
ร	-17.3532
ย	-17.3533
鋃	-17.3534
蹶	-17.3535
縟	-17.3536
璇	-17.3537
琺	-17.3538
牒	-17.3539
曇	-17.354
僂	-17.3541
俑	-17.3542
佝	-17.3543
铃	-17.3544
肓	-17.3545
聿	-17.3546
嗤	-17.3547
轻	-17.3548
肼	-17.3549
浹	-17.355
鞠	-17.3551
际	-17.3552
鑷	-17.3553
轅	-17.3554
躊	-17.3555
躇	-17.3556
賃	-17.3557
諭	-17.3558
詼	-17.3559
茴	-17.356
脉	-17.3561
繕	-17.3562
糰	-17.3563
瞼	-17.3564
瞌	-17.3565
眈	-17.3566
牴	-17.3567
灸	-17.3568
毬	-17.3569
椋	-17.357
杞	-17.3571
旼	-17.3572
拈	-17.3573
彆	-17.3574
婊	-17.3575
อ	-17.3576
齧	-17.3577
踴	-17.3578
裨	-17.3579
蜍	-17.358
窠	-17.3581
暸	-17.3582
慫	-17.3583
恿	-17.3584
忖	-17.3585
徜	-17.3586
徉	-17.3587
垠	-17.3588
俳	-17.3589
黝	-17.359
雹	-17.3591
陲	-17.3592
踱	-17.3593
萵	-17.3594
苣	-17.3595
芸	-17.3596
膈	-17.3597
篝	-17.3598
氓	-17.3599
惻	-17.36
蹴	-17.3601
貲	-17.3602
蛄	-17.3603
狓	-17.3604
殲	-17.3605
术	-17.3606
朧	-17.3607
憔	-17.3608
娠	-17.3609
妊	-17.361
嘮	-17.3611
咫	-17.3612
鯡	-17.3613
蝗	-17.3614
菍	-17.3615
矗	-17.3616
挹	-17.3617
儡	-17.3618
傀	-17.3619
丐	-17.362
̇	-17.3621
魘	-17.3622
餾	-17.3623
鐺	-17.3624
貽	-17.3625
蝓	-17.3626
蛞	-17.3627
縝	-17.3628
箴	-17.3629
笆	-17.363
潢	-17.3631
漓	-17.3632
渲	-17.3633
梟	-17.3634
懺	-17.3635
呻	-17.3636
颱	-17.3637
謾	-17.3638
箇	-17.3639
曖	-17.364
忡	-17.3641
奄	-17.3642
墅	-17.3643
咨	-17.3644
佼	-17.3645
蚱	-17.3646
礅	-17.3647
瘙	-17.3648
倪	-17.3649
邂	-17.365
逅	-17.3651
蹋	-17.3652
睞	-17.3653
棠	-17.3654
径	-17.3655
―	-17.3656
麪	-17.3657
閾	-17.3658
觭	-17.3659
蚯	-17.366
蚓	-17.3661
瘍	-17.3662
惘	-17.3663
堊	-17.3664
逍	-17.3665
誹	-17.3666
壕	-17.3667
兮	-17.3668
佃	-17.3669
濘	-17.367
嘈	-17.3671
魷	-17.3672
醞	-17.3673
瘩	-17.3674
疙	-17.3675
珈	-17.3676
枷	-17.3677
嶇	-17.3678
圳	-17.3679
霰	-17.368
跚	-17.3681
煥	-17.3682
俾	-17.3683
鯉	-17.3684
霾	-17.3685
藹	-17.3686
猾	-17.3687
焙	-17.3688
鱇	-17.3689
鮟	-17.369
餒	-17.3691
豌	-17.3692
蟋	-17.3693
蟀	-17.3694
瀰	-17.3695
屜	-17.3696
苷	-17.3697
媲	-17.3698
鵡	-17.3699
虜	-17.37
憬	-17.3701
瞳	-17.3702
睫	-17.3703
痹	-17.3704
釁	-17.3705
翱	-17.3706
骰	-17.3707
躪	-17.3708
蹂	-17.3709
蝌	-17.371
蚪	-17.3711
抨	-17.3712
蠑	-17.3713
紉	-17.3714
嚏	-17.3715
袱	-17.3716
繽	-17.3717
嗽	-17.3718
獗	-17.3719
漪	-17.372
湛	-17.3721
秉	-17.3722
痢	-17.3723
涸	-17.3724
沌	-17.3725
蕪	-17.3726
ñ	-17.3727
餚	-17.3728
峇	-17.3729
哮	-17.373
蜴	-17.3731
殭	-17.3732
橢	-17.3733
囪	-17.3734
ï	-17.3735
靂	-17.3736
汐	-17.3737
矚	-17.3738
劾	-17.3739
搐	-17.374
獁	-17.3741
捩	-17.3742
悚	-17.3743
姥	-17.3744
髦	-17.3745
岌	-17.3746
徊	-17.3747
狒	-17.3748
毋	-17.3749
瞰	-17.375
檸	-17.3751
檬	-17.3752
栩	-17.3753
娩	-17.3754
螃	-17.3755
殆	-17.3756
憊	-17.3757
閡	-17.3758
乍	-17.3759
婪	-17.376
亥	-17.3761
嬤	-17.3762
匱	-17.3763
)	-17.3764
豫	-17.3765
櫚	-17.3766
攸	-17.3767
馭	-17.3768
賂	-17.3769
蝴	-17.377
祉	-17.3771
淇	-17.3772
侈	-17.3773
疵	-17.3774
嚨	-17.3775
迺	-17.3776
忱	-17.3777
狩	-17.3778
溉	-17.3779
妨	-17.378
嗡	-17.3781
抉	-17.3782
瑰	-17.3783
橄	-17.3784
埔	-17.3785
蜓	-17.3786
茁	-17.3787
蟑	-17.3788
爍	-17.3789
疇	-17.379
駱	-17.3791
拇	-17.3792
崛	-17.3793
彗	-17.3794
嫉	-17.3795
鸚	-17.3796
飪	-17.3797
僚	-17.3798
慷	-17.3799
颶	-17.38
秩	-17.3801
啤	-17.3802
尷	-17.3803
詮	-17.3804
闆	-17.3805
骼	-17.3806
蝙	-17.3807
倡	-17.3808
犧	-17.3809
肪	-17.381
譬	-17.3811
蜘	-17.3812
咱	-17.3813
愉	-17.3814
葡	-17.3815
萄	-17.3816
璃	-17.3817
隸	-17.3818
~	-17.3819
徦	-17.382
萸	-17.382
醪	-17.382
陌	-17.382
«	-17.3821
»	-17.3821
θ	-17.3821
冋	-17.3821
删	-17.3821
涡	-17.3821
腚	-17.3821
譠	-17.3821
圾	-17.3821
圏	-17.3821
懟	-17.3821
纵	-17.3821
п	-17.3821
嶋	-17.3821
殤	-17.3821
珥	-17.3821
碸	-17.3821
竸	-17.3821
芉	-17.3821
茍	-17.3821
薏	-17.3821
讞	-17.3821
貎	-17.3821
选	-17.3821
飩	-17.3821
р	-17.3822
с	-17.3822
х	-17.3822
务	-17.3822
哌	-17.3822
喫	-17.3822
壙	-17.3822
姍	-17.3822
峍	-17.3822
庵	-17.3822
廖	-17.3822
惆	-17.3822
戟	-17.3822
扑	-17.3822
斁	-17.3822
构	-17.3822
氢	-17.3822
热	-17.3822
甪	-17.3822
磋	-17.3822
磧	-17.3822
綷	-17.3822
缷	-17.3822
芫	-17.3822
荽	-17.3822
菏	-17.3822
蚝	-17.3822
賍	-17.3822
迧	-17.3822
铁	-17.3822
锥	-17.3822
隂	-17.3822
隡	-17.3822
顥	-17.3822
餛	-17.3822
鬢	-17.3822
鲍	-17.3822
龄	-17.3822
ㄇ	-17.3822
ㄐ	-17.3822
ㄜ	-17.3822
䀚	-17.3822
仵	-17.3822
债	-17.3822
処	-17.3822
刼	-17.3822
吲	-17.3822
垛	-17.3822
弘	-17.3822
捂	-17.3822
桐	-17.3822
澍	-17.3822
濒	-17.3822
玃	-17.3822
筫	-17.3822
簣	-17.3822
缪	-17.3822
羲	-17.3822
膁	-17.3822
葆	-17.3822
葚	-17.3822
蟳	-17.3822
蠵	-17.3822
諂	-17.3822
责	-17.3822
辈	-17.3822
陃	-17.3822
顢	-17.3822
鰈	-17.3822
鶼	-17.3822
﨧	-17.3822
囍	-17.3822
榆	-17.3822
糸	-17.3822
赶	-17.3822
躱	-17.3822
	-17.3822
¢	-17.3822
å	-17.3822
û	-17.3822
ă	-17.3822
č	-17.3822
ť	-17.3822
ż	-17.3822
ǐ	-17.3822
ǒ	-17.3822
̊	-17.3822
χ	-17.3822
а	-17.3822
и	-17.3822
н	-17.3822
∞	-17.3822
⋄	-17.3822
ね	-17.3822
ㄉ	-17.3822
ㄋ	-17.3822
ㄑ	-17.3822
ㄙ	-17.3822
ㄝ	-17.3822
ㄞ	-17.3822
ㄢ	-17.3822
ㄨ	-17.3822
㝷	-17.3822
䐘	-17.3822
䓬	-17.3822
䕶	-17.3822
业	-17.3822
严	-17.3822
丼	-17.3822
丽	-17.3822
举	-17.3822
书	-17.3822
亜	-17.3822
仃	-17.3822
传	-17.3822
佪	-17.3822
侗	-17.3822
俎	-17.3822
俢	-17.3822
倌	-17.3822
値	-17.3822
倥	-17.3822
倩	-17.3822
倾	-17.3822
偣	-17.3822
傋	-17.3822
储	-17.3822
傯	-17.3822
儅	-17.3822
儖	-17.3822
冏	-17.3822
凅	-17.3822
凑	-17.3822
凴	-17.3822
刚	-17.3822
剂	-17.3822
剰	-17.3822
剿	-17.3822
办	-17.3822
匝	-17.3822
匡	-17.3822
医	-17.3822
华	-17.3822
卫	-17.3822
卹	-17.3822
双	-17.3822
叵	-17.3822
号	-17.3822
吔	-17.3822
听	-17.3822
启	-17.3822
吽	-17.3822
吿	-17.3822
呯	-17.3822
哆	-17.3822
唄	-17.3822
啷	-17.3822
嗄	-17.3822
嗞	-17.3822
嘣	-17.3822
嘸	-17.3822
噌	-17.3822
噙	-17.3822
嚀	-17.3822
嚯	-17.3822
囀	-17.3822
囌	-17.3822
囫	-17.3822
囯	-17.3822
囹	-17.3822
圄	-17.3822
圇	-17.3822
圜	-17.3822
圮	-17.3822
坄	-17.3822
坚	-17.3822
垫	-17.3822
垻	-17.3822
埠	-17.3822
堰	-17.3822
塭	-17.3822
墙	-17.3822
声	-17.3822
夀	-17.3822
奋	-17.3822
奘	-17.3822
奻	-17.3822
妠	-17.3822
妺	-17.3822
姣	-17.3822
姱	-17.3822
姶	-17.3822
娱	-17.3822
婕	-17.3822
媞	-17.3822
媮	-17.3822
嬅	-17.3822
嬗	-17.3822
嬬	-17.3822
孃	-17.3822
寿	-17.3822
尅	-17.3822
尓	-17.3822
尻	-17.3822
屄	-17.3822
屝	-17.3822
岛	-17.3822
峛	-17.3822
峯	-17.3822
崴	-17.3822
巳	-17.3822
巿	-17.3822
帘	-17.3822
幷	-17.3822
庚	-17.3822
庳	-17.3822
廩	-17.3822
廰	-17.3822
廻	-17.3822
弋	-17.3822
徇	-17.3822
徠	-17.3822
怏	-17.3822
恪	-17.3822
悦	-17.3822
惓	-17.3822
惬	-17.3822
愄	-17.3822
愴	-17.3822
慍	-17.3822
慼	-17.3822
憟	-17.3822
懣	-17.3822
戍	-17.3822
扞	-17.3822
扦	-17.3822
报	-17.3822
拣	-17.3822
拥	-17.3822
择	-17.3822
挈	-17.3822
挲	-17.3822
挷	-17.3822
捚	-17.3822
捺	-17.3822
揆	-17.3822
揑	-17.3822
揩	-17.3822
搽	-17.3822
摃	-17.3822
摄	-17.3822
摆	-17.3822
摖	-17.3822
摳	-17.3822
撚	-17.3822
撢	-17.3822
撻	-17.3822
攥	-17.3822
敕	-17.3822
敖	-17.3822
旎	-17.3822
旖	-17.3822
旧	-17.3822
暦	-17.3822
暪	-17.3822
朕	-17.3822
朴	-17.3822
条	-17.3822
杲	-17.3822
枒	-17.3822
枓	-17.3822
枸	-17.3822
标	-17.3822
棣	-17.3822
椴	-17.3822
椽	-17.3822
楞	-17.3822
楠	-17.3822
楸	-17.3822
榛	-17.3822
槨	-17.3822
槲	-17.3822
橐	-17.3822
檐	-17.3822
櫸	-17.3822
欉	-17.3822
殛	-17.3822
殮	-17.3822
毽	-17.3822
汛	-17.3822
沅	-17.3822
沏	-17.3822
沽	-17.3822
洄	-17.3822
洟	-17.3822
洮	-17.3822
浼	-17.3822
滓	-17.3822
潭	-17.3822
澇	-17.3822
澗	-17.3822
濔	-17.3822
瀘	-17.3822
炳	-17.3822
煱	-17.3822
燜	-17.3822
犎	-17.3822
猎	-17.3822
猙	-17.3822
獒	-17.3822
獰	-17.3822
玀	-17.3822
珐	-17.3822
珣	-17.3822
珮	-17.3822
珼	-17.3822
璄	-17.3822
璣	-17.3822
璽	-17.3822
瓔	-17.3822
瓞	-17.3822
畦	-17.3822
疪	-17.3822
痱	-17.3822
瘺	-17.3822
癈	-17.3822
癵	-17.3822
皱	-17.3822
盅	-17.3822
盖	-17.3822
眊	-17.3822
瞟	-17.3822
碇	-17.3822
祛	-17.3822
秣	-17.3822
稣	-17.3822
穠	-17.3822
窍	-17.3822
窣	-17.3822
窳	-17.3822
窸	-17.3822
竪	-17.3822
笫	-17.3822
筱	-17.3822
筵	-17.3822
篆	-17.3822
篙	-17.3822
篾	-17.3822
簌	-17.3822
簍	-17.3822
簪	-17.3822
籐	-17.3822
籥	-17.3822
粖	-17.3822
粧	-17.3822
粵	-17.3822
紂	-17.3822
紿	-17.3822
絹	-17.3822
綣	-17.3822
綳	-17.3822
緋	-17.3822
緖	-17.3822
縐	-17.3822
縳	-17.3822
繮	-17.3822
纈	-17.3822
纒	-17.3822
纓	-17.3822
纤	-17.3822
纪	-17.3822
绒	-17.3822
绩	-17.3822
绪	-17.3822
绳	-17.3822
缉	-17.3822
罄	-17.3822
网	-17.3822
罸	-17.3822
羌	-17.3822
翕	-17.3822
耄	-17.3822
耪	-17.3822
聒	-17.3822
聵	-17.3822
肮	-17.3822
肱	-17.3822
胆	-17.3822
胍	-17.3822
胴	-17.3822
胶	-17.3822
脇	-17.3822
脗	-17.3822
脯	-17.3822
腈	-17.3822
腩	-17.3822
腼	-17.3822
臧	-17.3822
舎	-17.3822
艏	-17.3822
芦	-17.3822
苒	-17.3822
荏	-17.3822
莘	-17.3822
获	-17.3822
菓	-17.3822
葧	-17.3822
蒡	-17.3822
蓆	-17.3822
蔕	-17.3822
蕎	-17.3822
蕞	-17.3822
薊	-17.3822
藕	-17.3822
蚶	-17.3822
蛸	-17.3822
蜃	-17.3822
蜱	-17.3822
螬	-17.3822
螻	-17.3822
蟄	-17.3822
蠋	-17.3822
蠔	-17.3822
蠹	-17.3822
衊	-17.3822
袈	-17.3822
裊	-17.3822
裟	-17.3822
褂	-17.3822
褙	-17.3822
襌	-17.3822
襠	-17.3822
襬	-17.3822
覇	-17.3822
视	-17.3822
觎	-17.3822
触	-17.3822
詔	-17.3822
詬	-17.3822
詺	-17.3822
誅	-17.3822
誔	-17.3822
諤	-17.3822
諫	-17.3822
謢	-17.3822
譟	-17.3822
讉	-17.3822
讖	-17.3822
讨	-17.3822
评	-17.3822
诊	-17.3822
语	-17.3822
谈	-17.3822
谧	-17.3822
賒	-17.3822
贋	-17.3822
贸	-17.3822
贾	-17.3822
赠	-17.3822
趙	-17.3822
踡	-17.3822
踼	-17.3822
輞	-17.3822
轶	-17.3822
辍	-17.3822
辫	-17.3822
违	-17.3822
逄	-17.3822
递	-17.3822
逬	-17.3822
逰	-17.3822
遥	-17.3822
邑	-17.3822
邻	-17.3822
郝	-17.3822
郷	-17.3822
醅	-17.3822
醍	-17.3822
醐	-17.3822
釒	-17.3822
鈧	-17.3822
鈸	-17.3822
鉈	-17.3822
鉍	-17.3822
鉬	-17.3822
銓	-17.3822
銙	-17.3822
銣	-17.3822
鋇	-17.3822
鋥	-17.3822
錸	-17.3822
鍆	-17.3822
鍬	-17.3822
鐙	-17.3822
钱	-17.3822
钴	-17.3822
铆	-17.3822
铠	-17.3822
锋	-17.3822
閏	-17.3822
閻	-17.3822
闋	-17.3822
闕	-17.3822
队	-17.3822
阮	-17.3822
阶	-17.3822
陞	-17.3822
险	-17.3822
隄	-17.3822
隋	-17.3822
雉	-17.3822
霑	-17.3822
靼	-17.3822
頇	-17.3822
頽	-17.3822
颤	-17.3822
飈	-17.3822
飊	-17.3822
风	-17.3822
餇	-17.3822
餞	-17.3822
餧	-17.3822
饜	-17.3822
馀	-17.3822
駑	-17.3822
駙	-17.3822
騃	-17.3822
驁	-17.3822
驛	-17.3822
鬈	-17.3822
鬩	-17.3822
鮋	-17.3822
鰥	-17.3822
鰹	-17.3822
鱉	-17.3822
鲸	-17.3822
鳊	-17.3822
鳍	-17.3822
鳯	-17.3822
鴐	-17.3822
鴴	-17.3822
鸌	-17.3822
鼹	-17.3822
齜	-17.3822
齪	-17.3822
齷	-17.3822
𤔡	-17.3822
拯	-17.3822
ě	-17.3822
ū	-17.3822
㿂	-17.3822
摑	-17.3822
柝	-17.3822
稹	-17.3822
閤	-17.3822
鶲	-17.3822
丰	-17.3822
侘	-17.3822
俸	-17.3822
冻	-17.3822
凄	-17.3822
噼	-17.3822
坵	-17.3822
堇	-17.3822
彻	-17.3822
忝	-17.3822
惧	-17.3822
擻	-17.3822
桀	-17.3822
榫	-17.3822
浙	-17.3822
涿	-17.3822
濡	-17.3822
牝	-17.3822
珞	-17.3822
痁	-17.3822
癩	-17.3822
礪	-17.3822
簟	-17.3822
粪	-17.3822
綸	-17.3822
缅	-17.3822
羶	-17.3822
艄	-17.3822
蘶	-17.3822
蜣	-17.3822
覈	-17.3822
誆	-17.3822
隴	-17.3822
鞣	-17.3822
韵	-17.3822
餋	-17.3822
鼯	-17.3822
φ	-17.3822
ㄍ	-17.3822
ㄣ	-17.3822
习	-17.3822
伉	-17.3822
俬	-17.3822
傹	-17.3822
儷	-17.3822
兑	-17.3822
吆	-17.3822
咤	-17.3822
唁	-17.3822
噵	-17.3822
圆	-17.3822
垏	-17.3822
埗	-17.3822
奨	-17.3822
婢	-17.3822
嬡	-17.3822
専	-17.3822
尘	-17.3822
庄	-17.3822
徬	-17.3822
抻	-17.3822
掦	-17.3822
昜	-17.3822
梉	-17.3822
楕	-17.3822
槪	-17.3822
殫	-17.3822
湄	-17.3822
溃	-17.3822
漥	-17.3822
犄	-17.3822
瑤	-17.3822
瘉	-17.3822
矓	-17.3822
磊	-17.3822
禀	-17.3822
笈	-17.3822
縂	-17.3822
繈	-17.3822
绿	-17.3822
罅	-17.3822
膘	-17.3822
荻	-17.3822
蘸	-17.3822
蟆	-17.3822
訖	-17.3822
设	-17.3822
豢	-17.3822
貉	-17.3822
邇	-17.3822
鏤	-17.3822
错	-17.3822
闐	-17.3822
雁	-17.3822
顉	-17.3822
颐	-17.3822
颯	-17.3822
駄	-17.3822
鱼	-17.3822
鴞	-17.3822
鴣	-17.3822
鷓	-17.3822
¤	-17.3822
­	-17.3822
¶	-17.3822
义	-17.3822
偃	-17.3822
偋	-17.3822
啐	-17.3822
墬	-17.3822
奕	-17.3822
尙	-17.3822
懐	-17.3822
洌	-17.3822
煨	-17.3822
猁	-17.3822
玖	-17.3822
皸	-17.3822
秧	-17.3822
肴	-17.3822
臚	-17.3822
荖	-17.3822
蠐	-17.3822
誑	-17.3822
辐	-17.3822
迼	-17.3822
釓	-17.3822
釩	-17.3822
鉺	-17.3822
鏨	-17.3822
隐	-17.3822
骑	-17.3822
鰤	-17.3822
鰩	-17.3822
偕	-17.3823
狭	-17.3823
猞	-17.3823
蕴	-17.3823
峋	-17.3823
嶙	-17.3823
瓿	-17.3823
怖	-17.3823
诠	-17.3823
礎	-17.3824
录	-17.3825
"	-17.3825
。	-17.3826
岐	-17.3826
